00
00
00
00
00
00
00
00
00
00
00
00
00
00
00
00
00
00
00
00
00
00
00
00
00
00
00
00
00
00
00
00
00
00
00
00
00
00
00
00
00
00
00
12
00
00
00
00
00
00
00
00
00
00
00
00
00
00
00
00
00
00
00
00
0f
00
13
10
00
00
18
20
1e
13
00
00
00
15
12
10
00
00
00
00
00
00
00
00
00
00
11
00
00
00
00
fd
f1
00
0c
16
14
1b
13
16
15
1a
11
00
00
00
00
00
00
00
00
00
00
00
00
00
00
00
00
fc
f1
19
0f
00
00
00
00
0b
ee
00
f6
00
fd
00
00
00
00
00
00
00
00
00
00
00
0f
fb
e6
df
00
00
14
17
25
00
d5
e3
d5
dd
e1
f2
00
00
00
00
00
00
00
00
00
00
00
f5
de
e9
e6
e5
00
00
11
14
04
00
cb
ca
b9
d6
f1
00
0f
00
00
00
00
00
00
00
00
00
f9
00
d5
df
ee
f0
00
00
23
17
00
e4
c7
b4
cc
d9
ef
00
12
00
00
00
00
00
0f
00
16
00
f8
00
d8
e4
e4
dc
ee
00
18
0e
d9
c2
bc
bc
ee
f5
f6
00
00
00
00
00
00
00
00
00
1c
0c
00
00
e3
d8
d4
e2
ef
0d
1b
00
df
cb
d2
d5
00
00
00
00
f1
00
00
00
00
00
00
00
00
00
0c
11
00
ea
f1
ec
f7
0e
06
00
df
e2
e6
fa
f0
00
00
00
fb
00
00
00
00
00
13
00
12
0d
11
02
00
00
00
00
0a
11
12
0a
ee
df
fe
00
00
00
12
00
e6
f5
00
00
00
00
00
00
00
00
00
00
11
0f
0c
0f
1a
1d
24
12
00
f4
00
24
19
0c
17
00
00
00
00
00
00
00
00
00
fd
00
12
00
09
11
0c
09
10
10
10
03
0f
00
20
2f
1b
1d
13
16
00
00
00
00
00
00
00
00
f7
00
00
00
0c
00
00
ee
00
00
0d
0c
14
18
06
06
0a
14
13
0f
f4
00
00
00
00
00
00
12
f9
f7
00
00
0d
00
00
f5
00
09
0c
0c
00
00
eb
fc
11
21
0e
00
00
00
00
00
00
00
00
00
fb
0b
07
11
0d
00
f3
00
f0
10
0d
00
00
e7
ee
00
16
1a
00
00
11
00
00
00
00
00
00
00
00
00
09
00
ec
f1
ee
de
00
20
09
00
00
ee
00
01
18
28
00
00
00
00
00
00
00
00
00
00
00
00
ec
df
ef
f4
dd
ce
00
24
06
00
00
00
00
0d
14
00
e8
f4
00
00
00
00
00
00
00
00
00
00
f3
00
f2
00
f1
00
0d
1d
0c
00
0a
15
12
00
00
e3
ce
ee
00
00
00
00
00
00
00
00
00
00
00
f4
e3
00
00
00
1a
21
0d
0a
0e
0b
0e
e9
00
f2
e3
e7
f1
00
00
00
00
00
00
00
00
00
00
e1
f2
e9
00
00
0c
0b
00
04
00
f3
00
00
00
f5
f7
ee
ec
00
00
00
00
00
00
00
00
00
f8
f4
f1
eb
00
ee
f3
ea
e7
00
00
f4
00
1d
00
00
f4
fa
00
00
00
00
00
00
00
00
00
00
12
00
f5
00
00
f3
00
e9
00
00
ea
f4
ed
1e
0c
00
00
00
00
00
00
00
00
00
00
00
00
00
00
00
00
00
00
00
00
f7
00
e2
f4
00
00
10
00
0d
0d
00
00
00
00
00
00
00
00
00
00
00
00
fb
f6
00
08
ff
f9
ee
f4
f5
f0
00
10
f6
f6
00
00
11
00
00
00
00
00
00
00
00
00
00
00
00
00
00
00
00
00
fb
ee
00
00
00
00
00
fc
00
00
00
00
00
00
00
00
00
00
00
00
00
00
00
00
00
00
00
00
00
00
00
00
00
00
00
00
00
00
00
00
00
00
00
00
00
00
00
00
08
00
00
00
00
00
00
00
00
00
08
00
00
00
00
00
00
00
00
00
00
00
00
00
00
00
00
00
00
00
00
00
00
00
00
00
00
00
00
00
00
00
00
00
00
00
00
00
00
00
00
00
00
00
00
00
00
00
00
00
08
00
00
00
00
00
00
00
00
07
08
00
00
00
00
00
00
00
00
00
00
00
08
00
00
00
00
00
00
00
00
00
00
00
0a
08
00
08
00
00
00
00
00
00
00
00
00
00
00
00
00
0a
00
08
00
00
ee
ed
00
f4
e5
e4
00
00
f6
00
00
00
00
00
00
00
00
00
00
08
00
00
00
00
00
00
f6
00
00
f5
00
ed
f0
e2
df
e2
ef
ed
00
f0
00
00
00
00
00
00
00
00
00
00
00
00
ed
f7
00
00
16
00
00
f2
13
00
00
00
00
00
f0
db
f3
fb
f2
00
00
00
08
00
00
00
0b
00
e0
f5
e7
09
0b
00
00
0a
21
1d
08
00
f1
dd
cc
de
f5
e9
eb
f5
00
00
00
00
00
00
00
00
ef
00
ef
17
0f
11
23
14
10
0d
00
00
f5
f6
df
dd
de
e7
e0
f0
f4
00
00
00
00
00
04
00
f3
00
00
16
17
21
14
11
10
17
00
e9
0c
0b
00
de
d5
dc
db
ef
00
0e
13
00
00
00
07
00
00
0a
11
1e
17
00
00
f3
00
14
00
0a
00
0a
00
e9
de
d8
00
00
00
09
09
00
00
0a
0f
06
15
12
27
11
00
ed
00
f6
00
17
1f
10
1c
0e
fb
00
00
00
f0
ec
00
00
00
00
00
00
0e
11
00
00
1e
00
00
e0
f4
db
f2
17
1b
0e
13
0c
00
00
ec
e4
df
f0
00
00
00
00
00
00
10
00
00
00
14
00
f0
ef
ea
ee
00
11
11
00
00
00
00
eb
f9
dd
e3
ea
00
00
00
00
00
00
00
00
e9
eb
00
f5
ee
f5
00
00
00
ea
00
00
eb
00
00
0e
00
f3
e7
eb
00
00
08
00
00
00
00
00
f4
f4
e2
ec
f2
f3
05
06
f4
e3
f4
fa
07
f6
07
10
00
00
f0
f5
00
00
00
00
00
00
00
00
f8
f0
00
00
eb
00
16
00
ee
ea
00
00
00
00
04
0c
16
00
f6
f0
00
00
00
00
00
00
00
00
00
00
00
00
ee
00
00
fb
00
00
13
00
00
e6
00
00
00
00
f4
f4
00
00
00
00
00
08
00
00
f5
00
00
00
ee
00
00
fd
f0
00
00
f2
f3
ee
00
00
00
00
ef
e9
00
09
00
00
00
00
00
00
f4
e0
e9
dc
e0
e8
f3
fe
f0
00
00
00
ef
ec
00
fb
00
00
f1
eb
00
00
00
00
00
00
00
00
00
df
f4
f7
dd
d3
d3
e6
e7
00
00
f0
ee
ed
fe
f9
00
00
00
00
00
00
08
00
00
00
00
0e
00
00
00
00
ef
00
e5
00
e6
00
00
f3
e1
e4
fb
00
00
00
00
06
00
00
00
00
00
00
00
00
00
00
ee
00
00
00
00
00
ee
00
00
dd
e4
e1
e8
00
00
00
00
06
00
00
00
00
00
00
08
00
08
ee
de
eb
ea
00
27
00
00
00
f2
df
e6
ec
f0
00
15
10
00
10
09
00
00
00
00
00
00
00
00
f4
e5
e0
e0
00
12
f5
00
e7
00
f8
00
e2
f0
1b
1e
00
00
00
00
00
00
00
00
00
00
00
0b
00
00
00
00
13
00
f3
ef
eb
00
00
00
00
00
19
00
00
f7
00
00
00
00
00
00
00
00
00
09
0d
00
08
12
23
19
0e
14
23
07
1f
23
1e
05
15
1d
0b
00
00
00
00
00
00
08
00
08
00
00
00
00
00
00
00
00
00
00
0e
0c
00
00
0f
00
00
09
0b
00
00
00
00
00
00
00
00
00
00
00
00
00
00
00
00
00
00
00
00
00
00
00
00
00
00
00
00
00
00
00
00
00
00
00
00
00
00
00
00
00
00
00
00
00
00
00
00
00
00
00
00
00
00
00
09
00
00
00
00
00
00
00
00
00
00
00
00
00
00
09
00
00
00
15
11
00
00
00
f2
00
00
00
00
00
00
00
00
00
00
00
00
00
00
00
06
00
00
00
13
24
22
1a
00
00
00
fa
f5
00
00
00
12
13
0d
00
00
00
00
00
0b
0a
00
0c
00
0b
15
0a
00
00
0a
1e
06
11
0a
00
18
00
00
00
03
f3
00
00
00
00
00
00
00
0b
0a
0d
0b
00
00
f4
00
00
0a
15
00
10
0a
f2
00
17
e8
e3
de
eb
00
f8
00
00
00
00
00
0c
12
0d
00
00
00
00
00
1e
00
12
14
15
0f
00
00
16
ea
d2
e2
f6
f7
f8
00
00
00
00
00
12
20
19
08
00
f0
00
1e
16
f5
ed
00
09
22
1d
00
00
d7
c7
d9
f6
f6
00
00
00
00
09
00
0b
1a
0e
00
00
fa
00
00
c7
af
d0
00
1c
28
15
00
00
da
c0
d7
00
00
00
00
00
00
00
00
0a
10
07
00
f0
e1
d9
c9
a2
b8
e5
12
1a
2a
20
20
ec
c3
cb
e3
00
00
00
00
00
00
00
00
00
00
ef
e4
d1
a8
b3
e2
de
fa
00
18
10
00
00
f9
bc
cc
e9
00
0b
00
00
00
00
00
00
00
00
e9
e4
dc
ca
e1
e7
0e
00
15
10
14
00
db
e9
ec
c9
e5
e9
03
00
00
00
00
00
00
00
00
00
f0
ee
dd
f1
00
00
1e
16
14
0a
0a
dd
e2
e0
eb
dd
00
00
00
00
00
0b
00
00
00
00
00
00
00
ec
0a
1a
0a
0f
1c
00
00
00
00
e3
00
f6
00
00
00
00
e5
f6
f5
00
00
00
00
00
00
00
00
f7
00
25
17
03
00
f8
f1
eb
00
e5
ec
00
ee
15
05
fc
04
00
00
00
00
00
00
00
00
00
0a
00
0c
12
f3
00
e5
00
f1
00
f2
e2
00
00
f0
fd
00
00
fc
00
00
00
00
00
00
00
00
00
00
00
0d
00
00
00
ec
00
e5
00
eb
f0
00
00
00
fe
ee
00
0a
04
0a
00
00
00
00
00
00
00
f4
ec
ea
f5
13
00
f2
f2
f4
0d
e7
ee
00
00
00
00
ec
11
17
f6
00
0c
00
00
00
00
00
00
f5
f1
00
00
13
1a
00
f3
e9
0d
e7
f1
00
eb
00
f9
f1
14
11
f7
00
00
00
00
00
00
00
00
ec
00
00
0d
09
11
13
f1
ef
00
00
00
ed
ef
0f
00
00
00
0b
00
00
00
0a
00
00
00
00
00
e3
00
00
00
00
17
00
e5
00
00
11
00
00
00
1e
f4
00
f7
0c
00
00
00
0a
00
00
00
00
00
f0
f0
00
e7
00
00
f0
00
00
00
00
00
00
00
00
f3
00
f7
00
00
00
00
00
00
00
00
00
0e
0e
0b
0f
00
00
00
00
00
00
00
00
00
f4
e9
ec
00
00
00
00
00
00
00
00
00
00
00
00
0a
0c
10
00
02
05
00
00
00
00
eb
f5
00
00
f3
00
fa
00
00
00
00
00
00
00
00
00
00
00
00
10
09
00
0c
11
1a
00
00
02
fe
0e
00
f4
00
08
00
00
0e
0c
00
00
00
00
00
00
09
00
00
0e
0e
0c
00
00
0e
00
15
17
15
00
00
ef
f6
0d
00
00
00
00
00
00
00
00
00
00
00
00
00
00
00
00
00
00
f5
00
00
00
00
00
00
0c
0c
00
00
00
00
00
00
00
00
09
00
00
00
00
00
00
00
00
00
00
00
00
00
00
00
00
00
00
00
00
00
00
00
00
00
00
00
00
00
00
00
00
00
00
00
00
00
00
00
00
00
00
00
00
00
00
00
00
00
00
00
00
00
00
00
00
00
00
00
00
00
00
00
00
00
00
00
00
00
00
00
00
00
00
00
00
00
00
00
00
00
00
00
00
00
00
00
00
00
00
00
00
00
00
08
00
00
00
f3
00
00
00
00
00
00
00
00
00
00
00
00
00
00
00
00
00
00
00
00
00
00
09
0d
13
12
0c
fd
01
1e
16
00
00
f2
00
00
00
00
00
00
00
00
00
00
00
00
00
00
00
00
fd
15
1a
1d
1b
0a
05
00
0e
10
0d
f4
ea
e6
f0
00
00
08
00
00
00
00
00
00
00
00
00
00
00
00
03
06
03
00
00
ef
00
00
00
00
00
09
00
f5
00
0d
00
00
00
00
00
00
00
00
00
00
10
1a
09
00
00
00
00
ee
e8
f4
00
00
0c
0e
0c
19
05
03
00
00
00
00
00
00
11
14
00
00
13
0b
0a
00
00
00
00
ee
ee
f8
00
00
00
05
11
17
00
03
00
00
00
00
00
00
13
12
14
0f
00
00
00
00
00
00
00
f3
f4
fc
00
18
19
00
14
19
00
00
00
00
00
00
00
00
00
11
14
00
1e
00
f4
f5
00
00
00
f7
00
e8
00
00
00
00
00
28
13
0b
0b
00
00
00
00
08
0b
09
12
14
00
04
00
f1
f5
00
00
f3
ef
e0
f0
ff
05
ff
00
1b
22
00
00
00
00
00
00
0a
10
00
00
00
00
00
f7
00
00
0d
0d
00
ec
ec
f7
00
00
ff
02
00
17
0e
00
00
00
00
00
13
00
00
00
00
00
00
fd
fa
17
18
08
00
e6
fa
00
04
00
f0
f6
fd
16
08
00
00
00
00
00
0e
00
00
e7
ef
00
00
fb
f3
00
00
00
00
f0
00
00
08
00
00
00
00
12
00
00
00
00
00
00
00
ec
f1
e7
e2
f0
e5
00
f7
00
00
15
00
00
00
00
00
f8
00
fe
00
00
00
00
00
00
00
00
00
e3
e2
e7
d6
d3
d4
ed
f1
f7
00
0d
17
00
00
00
00
00
00
00
00
10
0a
07
00
00
00
00
00
ea
dd
e0
da
e0
e5
00
fb
00
14
15
00
18
00
0f
09
14
1c
09
0d
00
0d
06
00
00
00
00
00
00
00
d5
dd
00
00
fb
00
0d
1a
1a
00
00
00
0c
00
00
13
00
00
f9
06
00
00
00
00
00
06
00
00
db
f1
00
1a
00
00
00
00
00
fa
00
00
00
00
00
00
00
00
f8
00
00
00
00
00
00
00
fe
00
00
00
18
12
00
00
00
00
f5
ee
00
0f
00
00
eb
00
00
00
00
00
00
00
00
00
00
0f
ff
0c
04
09
18
17
0e
0e
00
00
ec
00
00
00
00
e6
00
03
00
00
00
00
00
00
00
00
00
09
09
00
00
0d
00
1d
0c
0d
13
00
00
00
00
00
00
00
00
00
0c
09
00
00
00
00
00
00
00
00
00
00
00
00
00
17
11
11
00
11
0b
00
00
00
00
00
0b
00
00
10
06
00
00
00
00
00
00
00
00
00
00
00
00
20
00
12
11
14
00
0e
0a
00
0e
00
18
11
14
18
00
00
00
00
00
00
00
00
00
e5
13
00
00
00
00
0c
1c
1c
18
0f
18
15
18
0d
00
00
00
00
00
00
00
00
00
00
00
00
00
f2
1a
1f
00
18
00
21
1c
1e
23
1e
23
1d
11
09
00
00
00
00
00
00
00
00
00
00
00
00
00
f7
f8
00
00
00
00
00
00
00
00
00
00
00
00
00
00
00
00
00
00
00
00
00
00
00
00
00
00
00
00
00
00
00
00
00
00
00
00
00
00
00
00
00
00
00
00
00
00
00
00
00
00
00
00
00
00
00
00
00
00
00
00
00
00
00
00
00
00
00
00
00
00
00
00
00
00
00
00
00
00
00
00
00
00
00
00
00
00
00
00
00
00
00
00
00
00
00
00
00
00
00
00
00
00
00
00
00
00
00
00
00
00
00
00
00
00
00
00
00
00
00
00
f9
fa
00
0c
0d
00
00
00
00
00
00
00
00
00
00
00
00
00
00
00
00
00
00
00
f2
00
12
00
00
f0
00
1c
00
00
fa
00
00
00
00
00
00
00
00
0d
00
00
00
00
12
00
ea
e5
f9
00
00
1c
13
00
f8
00
1c
00
00
f6
00
00
00
00
00
00
00
00
00
00
10
13
10
ef
f5
e1
e2
e9
00
00
00
f1
00
00
1e
f0
f4
ef
f7
00
00
00
00
00
00
00
00
00
00
00
f8
fa
e5
eb
00
00
0c
00
00
1a
31
17
00
f8
e1
de
eb
00
00
00
00
00
00
00
00
00
e4
ef
00
f2
00
09
00
0e
00
07
15
10
0c
00
00
00
e9
da
ef
fa
00
00
00
00
00
00
00
00
00
00
00
0e
0e
0e
00
fc
00
00
19
05
04
09
0b
00
f5
f8
e0
e9
00
00
00
00
00
00
00
15
f5
15
00
0c
16
16
00
ea
00
07
00
0e
1a
00
00
11
00
00
e6
ef
fd
00
00
00
00
00
00
18
f9
ed
ec
09
00
00
f2
d7
ef
0c
ee
0d
0f
10
09
16
00
0e
00
fb
00
00
00
00
00
00
00
00
ef
e4
e5
06
00
00
e5
d3
00
14
00
0a
16
15
0e
1d
00
00
00
00
00
0d
00
00
00
00
00
00
f0
e2
00
00
00
00
ee
e8
00
1f
11
0c
10
03
f0
14
f4
e6
f5
f4
00
00
00
00
00
00
00
f5
e5
f0
00
00
00
00
00
00
13
25
19
00
00
ee
ea
ed
e8
d6
e3
e8
f7
00
00
00
00
00
00
00
e0
eb
f4
ea
00
00
f4
00
15
1d
1d
00
00
f0
db
ec
ed
ed
d9
e2
00
00
00
00
00
00
00
00
f3
ea
d3
d9
00
00
00
00
15
00
00
15
00
ec
e3
df
00
00
ef
f2
00
00
00
00
00
00
00
00
f9
ee
d6
e9
00
00
00
00
00
00
00
0e
00
00
e6
00
ef
e8
ed
00
f7
f9
00
00
00
00
00
00
ef
da
e3
d7
d8
de
f1
00
00
00
00
00
00
00
eb
ea
e5
f2
00
00
00
00
00
00
00
00
00
00
f1
e7
f6
e1
ca
e0
ed
eb
fa
00
00
00
00
00
fd
ef
e4
df
e5
f1
0e
00
00
00
00
00
f8
00
00
11
00
e4
db
db
d8
e0
db
f3
00
ef
f3
00
f7
d1
df
ed
ef
f6
00
00
00
00
00
00
f7
0f
13
0f
00
e2
da
e5
d2
d6
cd
00
00
f8
00
09
f3
d5
ed
ff
fd
00
00
00
00
00
00
00
00
10
1b
15
00
00
f0
00
f1
f7
f1
00
00
00
00
00
e4
e7
fd
f2
00
00
00
00
00
00
00
00
00
00
15
21
0b
00
00
14
00
00
00
14
00
00
fa
f7
ef
ec
f2
e7
00
00
00
00
00
00
00
00
00
00
0c
00
00
fd
f8
00
00
00
01
00
00
f5
e1
e7
f1
fa
f1
f6
f3
00
00
00
00
00
00
00
0e
0a
18
00
0e
0b
0d
00
f2
f0
00
ea
00
f2
e5
e5
f3
fd
fb
00
00
00
00
00
00
00
00
00
00
00
11
00
00
22
21
00
00
03
0f
00
00
0f
00
00
00
00
f8
00
00
00
00
00
00
00
00
00
00
00
00
00
00
00
1c
20
1c
0e
18
30
15
25
24
21
11
16
00
00
00
00
00
00
00
00
00
00
00
00
00
00
00
00
00
00
00
00
00
00
00
00
00
13
00
00
00
00
00
00
00
00
00
00
00
00
00
00
00
00
00
00
00
00
00
00
00
00
00
00
00
00
00
00
00
00
00
00
00
00
00
00
00
00
00
00
00
00
00
00
00
00
00
00
00
00
00
00
00
00
00
00
00
00
00
00
00
00
00
00
00
00
00
00
00
00
00
00
00
00
00
00
00
00
00
00
00
00
00
00
00
00
00
00
00
00
00
00
00
00
00
00
00
00
00
fa
f5
00
f8
00
ee
ef
e3
ec
00
22
18
17
26
17
00
00
00
00
00
00
00
00
00
00
00
00
00
f1
e8
ea
fb
00
e9
e4
00
00
16
0e
00
00
16
0e
19
13
00
00
00
00
00
00
00
00
00
00
f5
00
00
00
1e
25
00
f3
ee
00
00
f3
d3
dd
db
fa
00
00
00
00
00
00
00
00
00
00
15
00
00
00
00
20
1c
00
00
00
f1
f3
00
00
f1
00
e2
fb
0a
00
00
00
00
00
00
00
00
00
f8
f8
00
00
00
00
00
00
00
00
ef
e9
00
00
00
00
00
0c
1a
00
f0
12
00
00
00
00
0c
f4
f2
0d
0d
00
00
00
00
16
0a
00
00
00
00
00
00
00
00
16
15
32
1c
00
00
00
00
00
00
00
f7
00
00
00
23
00
00
00
00
00
f9
12
14
03
0a
0d
16
15
19
32
21
00
00
00
00
00
00
00
01
f8
ef
00
00
f4
00
00
00
f4
00
00
00
00
1f
2c
18
22
20
2e
28
0d
00
00
00
0f
00
00
00
00
ec
00
0f
0e
00
00
ea
e0
db
f3
f0
0e
12
1a
1a
2a
2c
28
18
00
00
00
00
00
0d
00
fc
ea
f5
00
12
08
00
ea
00
ef
eb
e7
f1
00
fa
0e
00
00
21
18
00
00
00
00
00
00
00
00
00
dd
00
19
10
21
00
0b
f6
ef
00
ec
f3
eb
00
00
00
00
00
00
f7
fa
00
00
00
00
00
f9
00
ea
ec
0c
0e
1d
10
f7
eb
ea
f4
ea
00
ef
00
f6
f4
f5
f9
ec
ef
fb
00
00
00
00
00
00
f8
dc
eb
00
13
29
24
00
e2
00
00
ef
00
00
ef
d7
e2
fd
00
e9
f0
00
00
00
00
00
00
ea
f0
cb
d7
00
0e
11
0d
13
0b
00
00
f2
00
fa
f4
ea
00
fb
eb
e9
e8
f4
00
00
00
00
00
e8
ed
ce
b9
da
10
1d
18
13
12
00
06
04
00
00
eb
f8
f6
fa
00
fc
f9
00
00
00
00
00
f6
ee
ec
d7
d5
d5
ea
00
24
1d
11
16
0b
08
00
e8
ed
07
ee
f9
f9
f3
fa
00
00
00
00
00
f7
00
00
ef
f2
db
e2
ea
ef
00
08
00
00
00
00
fc
f2
f0
e7
f1
ea
f0
fd
00
00
00
00
00
00
f3
fb
f4
00
ea
eb
e6
ee
f3
00
00
00
00
f4
ee
fd
da
e6
00
00
f9
00
00
00
00
00
00
f7
f2
00
f2
00
f2
f4
f4
00
00
e9
ee
ef
fa
ff
eb
ec
ed
fa
00
09
00
00
00
00
00
00
00
00
06
00
00
0c
00
00
14
00
f2
e4
fe
f5
f9
00
dd
e8
df
eb
00
00
00
00
00
00
00
00
00
00
08
0d
19
18
26
10
2e
00
ed
e8
00
f3
00
0c
00
e8
ec
fc
00
00
00
00
00
00
00
00
00
00
00
1d
1f
1c
21
24
22
10
00
06
00
00
00
ef
f6
ef
00
00
0c
00
00
00
00
00
00
00
00
00
00
00
f5
00
00
00
00
00
e8
03
00
00
17
00
fb
00
f4
00
0c
00
00
00
00
00
00
00
00
00
00
00
00
00
00
00
00
00
0c
00
00
00
12
00
00
00
00
00
00
00
00
00
00
00
00
00
00
00
00
00
00
00
00
00
00
00
00
00
00
00
00
00
00
00
00
00
00
00
00
00
00
00
00
00
00
00
00
00
00
00
00
00
00
00
00
00
00
00
00
00
00
00
00
00
00
00
00
00
00
00
00
00
00
00
00
00
00
00
00
00
00
00
00
00
00
00
00
00
00
0c
00
00
00
00
00
00
00
00
00
00
00
00
00
00
00
00
0d
12
00
00
00
00
10
0e
13
0f
00
00
00
00
00
00
00
00
00
00
00
00
00
00
00
10
19
00
00
28
1d
19
13
15
00
19
00
00
00
00
00
09
00
00
00
00
00
00
00
00
00
00
00
15
19
0c
0a
17
00
00
f3
fa
14
00
00
fc
00
f7
00
00
f1
ec
00
00
00
00
00
00
00
00
00
00
00
19
32
26
12
18
00
00
f6
ed
f4
e3
df
d7
e5
ed
e5
e2
f0
0a
00
00
00
00
00
0e
17
13
0c
15
2b
1b
21
12
00
00
ec
d8
dc
ca
dc
ec
df
e7
df
df
fa
00
00
00
00
00
00
11
0e
05
21
24
1f
0c
00
00
f1
ee
e8
d8
d3
bc
e6
e1
d0
e4
cb
dd
f7
00
00
00
00
00
00
00
13
0b
0e
0d
10
07
00
ee
df
ee
f7
ee
e4
e4
ed
e6
d5
00
e1
e6
f3
00
00
00
00
00
00
f9
00
13
0e
07
08
00
f7
00
f7
f8
00
00
00
00
f8
00
00
00
e3
ee
00
00
00
00
00
00
0e
00
00
05
07
00
00
00
00
00
e8
00
eb
00
14
0d
00
00
f2
f9
ef
00
00
00
00
00
00
00
0b
0e
03
02
fe
fb
03
00
fe
eb
d4
e4
00
0d
13
1e
fd
00
00
01
00
00
00
0c
00
00
00
00
00
17
00
09
00
0b
0d
00
e4
e0
cd
d0
e0
00
11
19
00
e9
00
00
00
00
09
12
00
00
00
00
00
00
00
1c
f8
00
00
00
00
ec
db
e1
e3
e8
0d
00
e8
00
00
16
24
1c
0b
13
00
00
00
00
00
00
ec
02
00
ea
12
00
02
f8
f1
f9
de
f1
00
00
12
00
00
11
1d
1a
00
00
00
00
00
00
00
00
eb
e4
de
da
00
00
00
00
00
00
e8
00
00
00
00
00
00
e9
08
0e
06
11
00
00
00
00
00
00
00
e5
d9
d1
00
00
ef
e4
f3
00
00
05
14
0f
00
18
00
00
0b
20
00
00
0f
00
00
00
00
00
00
ec
d2
dd
fa
00
e3
e6
de
f6
00
12
0c
0c
00
00
0c
fe
06
15
09
00
00
00
00
00
00
00
00
f3
ec
00
00
f6
00
f9
f7
00
14
00
00
1c
0b
ec
00
ea
f2
00
00
00
00
00
00
00
00
00
0c
00
00
00
00
f2
04
0f
00
0f
00
00
1c
1e
f6
e2
ec
f2
00
f4
00
00
00
00
00
00
00
00
0c
00
00
18
00
f4
00
00
07
00
00
0f
17
10
ee
e7
00
00
00
00
00
00
00
00
00
00
00
00
00
00
00
00
00
00
0e
00
01
03
10
1b
17
00
00
00
00
00
0f
00
f2
00
00
00
00
00
00
00
ee
f2
f7
f9
00
00
0d
00
00
00
03
00
f8
00
00
00
00
00
eb
ed
f4
00
00
00
00
00
00
00
f5
00
00
00
00
00
f4
f4
ee
00
09
00
f3
00
00
00
18
0d
00
00
00
00
00
00
00
00
00
00
00
00
fa
f1
f3
e8
ee
db
e0
00
1b
00
f0
00
15
0f
00
00
00
00
00
00
00
00
00
00
00
00
00
00
00
00
00
f1
ec
ef
00
00
11
00
11
00
f5
f8
00
00
f9
00
00
00
00
00
00
00
00
00
00
00
00
00
00
00
00
00
0d
1d
ee
e3
00
10
0f
00
0e
00
00
00
00
00
00
00
00
00
00
00
00
00
00
00
00
00
00
00
0b
0e
00
f7
00
00
00
00
00
00
00
00
00
00
00
00
00
00
00
00
00
00
00
00
00
00
00
00
00
00
00
00
00
00
00
00
00
00
00
00
00
00
00
00
00
00
00
00
00
00
00
00
00
00
00
00
00
00
00
00
00
00
00
00
00
00
00
00
00
00
00
00
00
00
00
00
00
00
00
00
00
00
00
00
00
00
00
00
00
00
00
00
00
00
00
00
00
00
00
00
00
00
00
00
00
00
00
00
00
00
00
00
00
00
00
00
00
00
00
00
00
00
00
00
00
00
00
00
00
00
00
00
00
00
00
00
00
00
00
00
00
00
00
00
00
00
00
00
00
00
00
00
00
00
00
00
00
00
00
00
00
00
00
00
00
00
00
00
00
00
00
00
00
00
00
00
00
00
00
00
00
00
00
00
00
00
00
00
00
00
00
00
00
00
00
00
00
00
00
00
00
00
00
00
00
00
00
00
00
00
00
00
00
00
00
00
00
00
00
00
00
00
00
00
00
00
00
00
00
00
00
00
00
00
00
00
00
00
00
00
00
00
00
00
00
00
00
00
00
00
00
00
00
00
00
00
00
00
00
00
00
00
00
00
00
00
00
00
00
00
00
00
00
00
00
00
00
00
00
00
00
00
00
00
00
00
00
00
00
00
00
00
00
00
00
00
00
00
00
00
00
00
00
00
00
00
00
00
00
00
00
00
00
00
00
00
00
00
00
00
00
00
00
00
00
00
00
00
00
00
00
00
00
00
00
00
00
00
00
00
00
00
00
00
00
00
00
00
00
00
00
00
00
00
00
00
00
00
00
00
00
00
00
00
00
00
00
00
00
00
00
00
00
00
00
00
00
00
00
00
00
00
00
00
00
00
00
00
00
00
00
00
00
00
00
00
00
00
00
00
00
00
00
00
00
00
00
00
00
00
00
00
00
00
00
00
00
00
00
00
00
00
00
00
00
00
00
00
00
00
00
00
00
00
00
00
00
00
00
00
00
00
00
00
00
00
00
00
00
00
00
00
00
00
00
00
00
00
00
00
00
00
00
00
00
00
00
00
00
00
00
00
00
00
00
00
00
00
00
00
00
00
00
00
00
00
00
00
00
00
00
00
00
00
00
00
00
00
00
00
00
00
00
00
00
00
00
00
00
00
00
00
00
00
00
00
00
00
00
00
00
00
00
00
00
00
00
00
00
00
00
00
00
00
00
00
00
00
00
00
00
00
00
00
00
00
00
00
00
00
00
00
00
00
00
00
00
00
00
00
00
00
00
00
00
00
00
00
00
00
00
00
00
00
00
00
00
00
00
00
00
00
00
00
00
00
00
00
00
00
00
00
00
00
00
00
00
00
00
00
00
00
00
00
00
00
00
00
00
00
00
00
00
00
00
00
00
00
00
00
00
00
00
00
00
00
00
00
00
00
00
00
00
00
00
00
00
00
00
00
00
00
00
00
00
00
00
00
00
00
00
00
00
00
00
00
00
00
00
00
00
00
00
00
00
00
00
00
00
00
00
00
00
00
00
00
00
00
00
00
00
00
00
00
00
00
00
00
00
00
00
00
00
00
00
00
00
00
00
00
00
00
00
00
00
00
00
00
00
00
00
00
00
00
00
00
00
00
00
00
00
00
00
00
00
00
00
00
00
00
00
00
00
00
00
00
00
00
00
00
00
00
00
00
00
00
00
00
00
00
00
00
00
00
00
00
00
00
00
00
00
00
00
00
00
00
00
00
00
00
00
00
00
00
00
00
00
00
00
00
00
00
00
00
00
00
00
00
00
00
00
00
00
00
00
00
00
00
00
00
00
00
00
00
00
00
00
00
00
00
00
00
00
00
00
00
00
00
00
00
00
00
00
00
00
00
00
00
00
00
00
00
00
00
00
00
00
00
00
00
00
00
00
00
00
00
00
07
00
00
00
00
00
00
00
00
00
00
00
00
00
00
00
00
00
00
00
05
00
00
00
00
0c
10
0d
09
00
00
00
00
00
00
00
00
00
00
00
00
00
00
00
00
00
00
00
ed
f4
00
00
00
ed
00
16
0b
00
13
00
0e
00
00
00
00
00
00
00
00
00
00
00
f2
e8
00
f2
e8
ef
fd
00
00
00
fa
00
00
00
12
0e
15
00
00
00
00
00
00
00
00
00
00
f3
e7
cb
e0
ea
00
00
00
00
00
f3
00
00
0a
15
00
00
00
02
00
00
00
00
00
00
00
00
00
00
db
c4
c2
e0
f3
fa
f6
00
00
00
00
00
00
2a
00
00
07
0b
12
00
00
00
00
00
00
00
00
f2
d1
b5
d0
00
00
00
0a
08
09
00
00
00
00
1f
07
00
0b
00
0a
00
00
00
00
00
00
00
00
00
d6
ac
e6
00
25
1b
0f
00
00
00
ff
00
00
00
08
e7
00
1b
0b
05
00
00
00
00
00
00
f4
ed
c3
c2
10
18
2b
13
09
f3
fd
fe
f6
e9
f1
fa
00
e3
00
18
0f
00
00
00
00
00
00
00
ee
df
c6
f0
14
28
1b
22
00
00
e7
e4
e9
ef
f6
00
00
ed
00
10
0f
00
00
00
00
00
f5
00
e8
df
d1
ed
00
00
00
00
fa
00
e9
fa
f9
00
00
00
00
eb
00
14
14
09
00
00
00
00
00
f6
ec
eb
eb
f7
06
00
14
f5
00
00
00
00
10
00
00
1b
11
e4
00
02
00
00
00
00
00
00
00
f0
d4
e6
00
f5
00
00
00
12
0f
15
1b
0a
00
00
00
0e
f3
e0
e4
00
00
00
00
00
00
00
00
00
dc
f7
00
00
00
00
00
00
14
12
0d
16
00
ef
e5
00
fb
ed
ea
f9
00
00
00
00
00
00
00
ef
f2
00
00
00
00
00
00
00
00
0c
00
00
00
00
e9
e8
fb
00
f9
00
00
00
00
00
00
00
00
ed
00
13
00
00
00
00
00
00
f3
00
f0
00
fc
00
e9
ee
e1
f9
00
00
f3
f2
00
00
00
00
f1
f0
05
12
0e
16
00
0b
00
e9
dd
ee
00
00
00
00
e7
00
e2
ec
00
f2
ec
00
00
00
00
00
ef
00
08
1c
1a
0f
13
00
00
00
f0
f5
00
0b
0b
00
00
00
da
d5
ec
e8
00
00
00
00
00
00
00
00
ff
0b
00
0b
00
00
f3
00
ed
f3
00
13
17
00
00
ec
ea
e1
00
00
00
00
00
00
00
00
00
00
12
0c
f2
00
00
00
00
f0
ee
00
10
15
27
09
00
e8
ef
00
f3
00
00
00
00
00
00
00
00
00
00
00
f3
eb
04
00
00
00
00
00
00
00
24
15
f1
ec
e5
e9
00
00
00
00
00
00
00
00
00
0c
eb
f2
00
f7
f5
00
0d
00
00
14
00
0c
0c
00
db
dc
e5
00
00
00
00
00
00
00
00
00
00
00
00
00
00
0d
00
ee
00
11
00
11
1e
0e
00
ed
e5
f0
f5
f2
00
00
00
00
00
00
00
00
00
00
ee
00
00
11
00
00
00
12
0a
00
0f
0c
e2
e2
db
f4
ef
00
00
00
00
00
00
00
00
00
00
ec
ed
00
f2
00
00
00
0b
17
11
00
09
0e
1a
00
00
0a
00
00
00
00
00
00
00
00
00
00
00
00
0d
14
00
00
09
12
21
0c
00
1d
1d
18
17
08
00
00
00
00
00
00
00
00
00
00
00
00
00
00
00
00
00
00
00
00
00
00
00
00
00
00
00
00
00
00
00
00
00
00
00
00
00
00
00
00
00
00
0d
00
00
00
00
00
00
00
00
00
00
00
00
0e
00
00
00
00
00
0d
00
00
0e
00
0d
00
00
00
00
00
00
00
00
00
00
00
0e
00
00
0e
0f
00
00
00
0d
00
00
0d
00
00
0c
00
00
0d
00
00
00
00
0f
00
00
11
00
10
00
00
00
0b
11
0d
0e
00
00
0e
0e
0e
00
00
00
00
00
00
00
00
00
00
00
00
14
00
00
09
05
00
06
15
00
f2
00
00
00
00
0d
0d
00
00
00
00
00
00
00
00
00
00
f8
00
15
1a
00
1e
00
00
e5
00
00
f3
00
00
12
00
00
00
00
00
00
00
0d
00
00
00
00
00
00
18
00
00
12
16
00
ee
e2
00
00
00
00
f6
00
f3
ec
f4
00
00
00
0d
00
00
00
00
00
00
00
fb
fe
f1
0a
1a
00
ed
ec
f3
00
00
00
00
ee
e1
e6
ea
00
00
00
00
00
0e
00
00
f1
00
ee
e8
00
0c
0b
00
f5
e8
eb
ef
0f
1b
14
00
f5
e2
f0
00
00
00
00
0f
00
00
00
00
fb
00
00
00
0a
00
00
1c
00
fe
ed
00
0b
08
00
fc
dc
fa
f6
00
00
0d
00
00
00
00
00
fd
f8
00
00
eb
00
e9
00
00
f6
ed
00
07
12
0f
00
e4
dc
00
00
00
00
00
0e
00
0e
0f
00
00
ea
e9
f0
ec
00
00
00
f8
e6
00
00
00
19
00
ea
e3
00
00
00
00
fa
00
0d
0d
0f
00
00
00
ea
de
00
0a
00
e9
f3
f0
00
10
0b
00
00
ea
d3
e2
00
00
00
00
00
00
00
00
00
0f
00
00
ed
e3
00
00
00
f0
d7
ee
14
00
00
00
00
f0
e7
ee
0b
15
1d
1d
15
00
00
00
00
00
00
00
f2
ed
ef
00
00
00
e4
e8
0f
00
00
00
ee
0f
00
19
1f
1b
20
22
12
0d
00
00
0e
00
00
f7
00
00
00
00
00
f0
00
10
12
12
00
ea
e2
06
29
00
15
12
0f
08
0c
00
00
0e
0d
0e
00
ee
ea
00
00
f2
ef
00
20
18
12
00
00
ea
00
12
21
00
00
07
00
00
0d
10
00
00
00
0d
00
f6
f0
00
00
e9
e8
00
22
1f
10
00
f0
f3
00
1d
00
f2
00
f5
00
00
0e
10
00
00
0d
00
00
00
00
00
00
ed
00
00
1f
11
00
00
ea
ef
00
1d
00
00
00
00
13
1e
17
12
00
00
00
00
00
00
00
00
00
ec
00
07
18
1c
00
ee
ef
f1
fa
13
00
00
fa
f4
13
13
13
00
00
00
0e
00
00
00
f7
00
00
e4
e2
19
2b
1b
00
e6
e5
ff
f7
00
00
f1
eb
f9
00
00
00
0f
0e
0d
00
00
0d
00
ef
ef
fa
e6
e5
1f
28
36
00
e9
f3
00
f1
f4
00
ed
e5
f2
00
00
00
0d
00
00
00
00
00
00
00
f5
ec
e0
00
00
16
20
09
f5
ee
ed
e3
eb
00
f5
ea
f9
00
00
00
00
00
00
00
00
00
f8
00
f0
f1
e2
ea
f4
0e
19
06
ee
df
ea
ea
ed
f7
ef
f4
00
fd
00
00
00
00
0e
00
00
00
00
f3
f6
ee
e6
e7
e9
03
26
14
00
e5
00
00
00
00
ef
f7
fc
f3
00
00
00
00
00
00
0d
00
00
fa
f1
de
d8
df
f6
0b
26
21
18
0e
00
e4
ef
e7
ef
e9
f7
f8
00
00
00
00
00
00
00
00
00
00
f6
ec
e8
f3
00
00
1e
00
1b
1c
00
ef
e3
dc
ed
f6
00
00
00
00
00
00
00
0e
00
0e
00
00
fb
00
00
00
f3
00
fe
00
00
00
f8
00
f1
00
00
00
00
00
00
0d
0e
00
00
00
0e
0d
00
00
00
00
00
00
00
00
00
00
00
00
00
00
fb
0d
00
10
00
00
00
00
00
00
00
00
00
00
00
00
00
00
00
00
00
00
00
0e
00
00
00
00
00
0f
00
00
00
00
00
00
00
00
00
00
00
00
00
00
00
00
00
00
00
00
00
00
00
00
00
0f
00
00
00
00
00
00
00
00
00
0e
00
00
00
00
00
00
00
00
00
00
00
00
00
fd
00
00
00
00
00
00
00
00
00
00
10
00
00
00
00
00
00
00
00
00
00
00
00
00
00
00
00
f8
f4
00
f9
f9
00
00
00
00
00
00
00
00
00
00
0e
00
00
00
00
00
00
00
f2
00
ee
f0
e7
df
e4
ec
de
e5
eb
f7
ff
00
f5
00
00
00
00
00
00
00
00
0f
00
00
f9
00
dc
00
db
cd
b3
c2
bc
f6
f0
d8
e8
f1
e8
f1
e8
00
00
fd
00
00
00
00
00
0f
00
f0
f5
f3
f2
00
df
da
d7
e9
cf
d8
da
f6
eb
e0
de
05
00
dd
00
00
00
00
00
00
0f
12
00
00
11
00
00
00
00
00
00
07
f1
ef
f2
fc
ef
f9
00
02
00
00
00
f3
00
00
00
00
00
0e
08
00
00
00
00
00
13
1d
23
19
16
17
09
00
00
16
12
00
00
04
00
ec
00
00
00
00
00
00
23
13
10
00
00
15
26
30
38
32
31
1f
15
17
00
0a
00
00
06
00
0b
00
0d
16
00
0f
0f
0d
16
0d
1f
15
1f
2c
1d
24
11
2f
32
2c
27
00
00
00
f0
e7
00
1b
00
1c
0f
00
00
00
00
11
00
10
00
00
1b
1b
0c
17
00
11
0f
15
00
00
f5
f0
00
e3
0e
00
00
00
00
00
00
00
00
00
00
f7
00
00
00
00
00
e9
e0
f6
00
00
00
00
08
00
f2
f0
00
00
00
10
10
00
00
00
00
f6
e6
eb
00
ef
fa
ff
ea
eb
f7
00
0f
00
00
00
00
00
00
00
f3
0c
19
00
0d
0f
00
0e
00
00
e3
da
f4
f0
f4
f2
00
00
13
00
00
00
00
00
0f
00
0f
00
00
10
24
0f
0f
00
00
0e
00
00
f2
00
00
00
00
f7
00
03
0b
00
00
00
f0
00
0d
08
15
11
00
fe
1a
00
00
0f
00
00
00
fd
f3
14
00
00
0a
00
00
06
09
00
00
f7
ec
00
00
0e
07
00
00
00
00
00
16
11
00
00
00
00
fc
00
10
0d
00
00
00
09
07
ed
f5
f3
ef
00
00
16
0e
00
00
f3
f0
00
10
00
00
00
00
00
00
0c
20
15
09
09
11
0e
06
00
00
ee
ea
00
00
13
0e
00
1a
0c
fc
00
0f
00
00
00
00
00
14
00
00
11
00
06
00
00
00
ef
00
00
00
00
0f
1a
00
09
1e
00
fa
00
10
0e
00
00
00
0e
14
00
00
f0
00
ec
e7
e7
e2
dd
00
f1
f8
00
00
00
ec
00
1a
20
00
00
00
00
00
00
0f
11
1d
0d
00
e7
d0
e3
e4
db
e8
e8
ed
f5
0f
f8
00
f5
df
f0
00
10
00
00
00
00
00
00
00
00
16
0e
09
ec
ed
ee
dc
dd
04
00
00
00
00
00
00
e9
f2
f7
00
00
10
0f
00
00
00
00
00
00
17
1b
09
08
e8
ea
00
00
0a
06
00
00
00
f8
f6
df
e5
f0
00
11
15
0f
00
00
00
00
00
00
1a
1e
00
00
e5
00
10
f4
00
00
f5
00
00
00
f7
03
15
00
00
00
00
00
00
00
00
00
00
00
0c
00
00
10
0d
00
18
00
1e
00
ea
0e
1e
0e
00
30
28
0f
00
00
00
00
0f
00
00
00
00
00
fa
e6
ee
0c
00
00
18
11
11
28
22
1e
26
18
00
19
1e
16
14
10
00
0e
00
00
00
00
00
00
00
00
00
0f
00
00
00
00
00
00
0f
00
00
11
00
00
00
00
00
00
0e
0f
00
00
0d
0c
00
0e
0b
00
00
0e
0e
09
00
00
0d
00
00
00
0c
0e
0b
0c
00
00
00
00
00
00
00
00
0c
0a
0a
0c
00
00
0a
00
0d
00
0e
0f
0b
00
12
11
00
0c
0f
0b
0a
0a
00
0b
00
0a
00
0d
00
0e
00
00
00
0f
0a
00
00
00
00
07
00
00
00
12
0f
10
11
0e
0d
00
00
0c
00
00
00
0d
0a
00
0e
00
00
0c
00
00
00
00
f5
00
00
ec
ed
00
00
06
00
f0
00
0a
0b
00
00
00
00
00
0d
0b
00
00
0d
00
0d
00
f1
ec
e3
f4
f9
00
00
00
00
ef
fe
e8
e3
e6
00
14
08
11
00
0b
0e
00
0e
0b
0d
0a
00
f3
e5
cf
d2
ec
eb
00
0a
00
00
f9
f1
fc
00
e4
00
00
00
00
0b
00
0f
0b
0d
0e
0a
0a
00
ee
de
db
f9
f3
18
0f
00
00
ed
fc
00
00
11
ec
00
06
1b
0b
0c
00
0c
00
00
0a
0c
00
f5
f3
e5
f5
00
17
19
00
00
fa
f2
00
00
00
0d
05
17
23
13
0b
19
0c
0c
00
0b
0a
0a
00
00
f6
fa
f0
e8
00
1b
0b
00
00
00
16
0f
0b
1e
1f
16
2b
3b
30
0e
00
00
00
0b
0d
0b
00
00
00
eb
e8
e9
f2
00
0e
00
00
00
00
0d
17
20
14
0a
0f
1d
19
00
00
00
0b
0d
00
0b
00
f7
f7
ea
e6
f8
e8
00
0f
00
0f
d6
cd
db
00
00
00
00
0c
00
18
04
05
00
0d
0a
0d
00
00
f3
eb
db
ed
f6
db
eb
00
00
ed
d0
b0
b4
cd
c1
e6
ec
f3
f2
0d
00
00
00
0e
0c
0d
00
00
00
00
00
fe
ea
f1
00
00
0f
ec
e6
c6
b9
b4
cf
cf
df
e5
ef
00
0d
00
00
00
00
00
00
00
00
00
00
f7
f1
f7
11
00
15
00
00
00
d6
df
cb
d3
da
e5
f3
00
00
0b
0c
0d
00
0f
00
0a
00
00
00
00
f6
00
00
00
0f
00
fd
f1
00
eb
db
e6
ed
ee
00
00
0b
0b
00
0f
0e
00
00
13
00
00
11
00
00
f4
0d
0a
00
fd
f4
fd
00
ef
dd
eb
e8
f7
00
00
00
0d
00
00
0a
0c
13
0b
00
f2
00
00
00
00
18
18
18
00
fb
fe
fc
00
00
f3
f2
00
08
00
00
00
0d
00
00
00
0d
0a
00
00
00
00
00
00
00
0c
20
1c
00
00
f6
00
00
00
00
08
00
00
09
0d
00
0b
0c
00
00
f2
00
00
09
00
00
00
00
00
18
00
00
00
ef
00
f8
ed
e5
f0
00
0d
0d
0e
0f
0d
00
00
eb
00
00
0c
15
0d
f0
f4
f2
00
00
00
00
f4
ed
ec
ec
e9
f1
00
0e
16
0f
0e
00
0f
0e
00
e7
00
00
00
0e
00
00
00
00
00
00
1d
12
0a
00
00
f4
f4
00
00
00
11
0c
0e
0b
0c
0b
00
ed
00
fb
00
0c
11
00
14
10
00
11
1b
10
0f
00
00
00
00
f8
00
0b
00
0d
00
09
0f
0b
00
00
00
00
00
00
0d
0b
12
1f
00
13
0c
00
00
16
00
00
00
00
00
00
00
0a
00
00
00
0c
00
00
00
00
00
00
00
00
fa
00
00
12
00
fe
f5
00
00
00
f9
00
00
00
0b
0b
0f
0a
00
00
0a
00
eb
e6
e6
e5
00
ea
f0
00
00
fb
f0
ea
f2
00
00
00
00
00
0d
0c
0d
0c
00
0f
00
00
00
00
00
ef
e8
00
00
e2
e6
00
00
f6
e4
00
00
00
0e
0d
0c
0f
0c
00
00
0e
0a
00
00
00
0a
0e
0d
0b
0b
00
05
00
00
00
f2
e7
f1
00
00
00
00
0b
0e
0d
00
00
0c
0d
00
0a
00
00
00
00
0e
00
0e
0e
00
00
0b
0a
00
0f
0a
00
00
0a
0a
0f
00
0d
0a
0d
0a
00
0c
00
09
00
00
0b
00
00
00
0b
00
00
00
00
00
00
0a
00
09
00
00
00
00
00
00
00
09
0a
00
00
00
00
00
00
00
00
00
00
00
00
00
00
0c
00
09
00
00
00
00
00
00
0b
00
09
00
00
00
00
00
09
00
00
00
00
09
00
0a
00
0d
0e
00
00
00
0c
00
0b
0f
00
12
0a
09
00
00
09
00
00
00
0b
0a
00
00
00
00
00
00
00
00
00
f3
f5
fa
f7
00
01
0d
0c
0d
0b
13
0e
00
00
0a
00
00
00
0b
00
00
f7
f0
f6
13
1c
00
00
00
18
00
00
ee
ec
00
00
00
0e
0b
00
00
00
0b
00
00
09
00
00
f8
e4
e0
f6
00
1e
17
00
00
00
e9
eb
00
00
00
00
00
0e
0e
00
00
12
0e
00
09
09
00
00
ec
cd
e6
f1
ff
00
00
00
f1
e9
e9
e8
f6
f7
00
00
ff
17
1d
16
17
00
00
09
00
09
00
f7
ef
df
dc
00
00
09
00
e6
00
f9
00
00
00
00
00
00
18
1e
1d
09
00
00
00
09
00
09
00
f9
ea
fd
f0
00
0a
00
02
00
00
00
00
00
00
00
00
17
20
00
07
00
00
0c
00
0a
00
00
00
f4
eb
00
f0
00
0a
02
00
f7
f2
ee
fa
00
fb
ee
00
0b
00
f6
f2
0a
0b
00
00
09
00
00
00
00
f5
fd
00
0f
21
14
00
f7
ea
e8
e1
e0
e3
00
00
00
00
f0
f7
08
00
00
09
0a
09
00
00
f8
fe
11
16
18
1b
07
04
00
00
ef
dd
d9
e1
e9
00
db
de
e9
00
0a
0c
0d
00
00
00
00
00
f9
00
00
1a
13
0a
06
1b
1b
0c
f1
e7
eb
00
00
00
d8
e5
e9
08
05
00
00
00
09
00
00
00
f8
fd
00
00
00
11
17
1d
21
0f
00
00
00
00
00
00
08
ea
00
00
00
00
00
00
00
00
09
00
00
00
00
00
00
07
10
0e
00
00
00
0c
1c
14
10
00
00
13
19
00
00
00
00
00
00
00
00
00
00
fb
f2
0b
00
00
00
14
17
00
00
f1
10
00
00
00
00
05
00
00
f0
00
00
00
00
00
00
00
00
f6
00
e1
eb
e7
00
09
19
00
e8
f2
00
00
00
00
ea
e8
00
10
00
00
f7
00
00
00
0a
00
00
00
00
00
00
00
07
0d
11
00
f1
e6
e8
e4
00
00
00
00
00
00
00
00
00
09
00
00
00
00
00
00
0b
00
11
10
06
04
16
00
00
00
ef
e9
e8
00
00
00
f0
e9
00
0a
00
00
00
00
00
00
00
00
00
00
10
00
00
00
0d
0e
00
00
e1
ef
ef
00
00
00
00
00
00
00
00
00
0b
0b
00
00
00
00
00
00
00
00
f5
00
0a
00
00
f3
e6
f3
00
00
00
f3
00
00
00
0f
0a
00
09
00
0a
00
0e
00
00
00
1d
19
f7
00
00
14
00
00
eb
00
15
00
00
ee
00
00
00
0b
0a
0b
00
00
00
0f
11
00
fc
00
00
00
00
00
00
00
08
0a
10
00
0c
00
00
00
f6
00
00
00
00
00
00
00
00
00
0e
13
00
00
00
00
00
00
00
0c
13
09
1b
0e
00
00
00
00
00
00
00
0c
00
00
00
00
00
00
00
f5
00
00
00
00
00
14
14
0e
00
00
0f
00
03
00
00
fb
00
00
00
00
00
00
00
00
00
00
00
00
00
05
00
00
00
03
00
05
00
04
17
30
29
19
12
00
0c
0b
00
0a
00
00
00
00
00
00
00
00
00
00
00
00
00
00
15
05
0a
10
11
20
12
00
00
00
09
00
00
00
00
0b
00
00
00
00
0a
00
00
0b
09
00
09
00
00
00
00
0e
00
0a
00
00
00
00
00
00
00
00
00
00
00
00
00
00
09
00
00
00
09
00
00
00
00
00
00
00
00
00
00
00
00
00
00
00
00
00
00
00
00
00
00
00
00
00
00
00
00
00
00
00
00
00
00
00
00
00
00
00
00
00
00
00
00
00
00
00
00
00
00
00
00
00
00
00
00
00
00
00
00
00
00
00
00
00
00
00
00
00
00
00
00
00
00
00
00
00
00
00
00
00
00
00
09
ee
00
00
00
00
00
00
00
00
00
00
00
00
00
00
00
00
00
08
00
00
00
00
00
00
00
0e
00
00
0c
12
15
0a
00
e6
00
00
00
00
fa
fa
00
00
00
00
00
00
00
00
00
00
00
14
1a
19
16
23
19
13
0e
00
00
00
00
ef
ed
ee
00
f2
eb
f5
00
00
00
00
00
00
00
0b
07
0f
11
15
1b
29
00
0c
00
00
00
00
0b
08
f2
00
f7
f6
f3
00
00
00
00
00
00
00
00
0a
0c
00
00
00
00
00
f9
fa
00
00
00
00
06
00
e8
e4
ec
fb
f6
f9
00
00
00
00
00
00
00
14
1d
00
0d
00
13
00
00
00
00
00
00
00
00
00
00
00
f3
f1
00
f6
00
00
00
00
00
00
00
14
1b
00
17
00
00
00
00
fa
00
00
00
0d
00
1e
07
0c
00
e5
e8
f3
f3
00
00
00
00
00
00
13
13
00
17
00
00
f1
f0
eb
ed
00
13
0e
20
2a
1c
0b
00
e1
ed
f3
00
00
00
00
00
00
00
11
00
00
00
00
07
f9
e7
f1
ff
00
00
00
00
00
17
12
ff
ef
f1
ef
00
00
09
00
00
00
00
0b
00
f6
ed
00
00
00
e6
fb
fa
22
00
00
ff
f3
11
00
00
f5
ef
eb
f3
00
00
00
00
00
00
0b
00
e9
ed
00
0a
00
e7
e5
f5
00
00
00
00
00
00
ec
ea
ee
e9
df
eb
00
00
00
00
00
00
00
00
e8
e6
00
0f
f3
ee
ec
f2
f7
00
00
00
11
00
fb
f7
ff
f3
f5
00
00
00
00
00
00
00
00
00
eb
eb
ef
00
f2
e9
e9
e8
f9
00
07
00
14
00
00
00
22
18
0c
00
00
0b
00
00
00
00
09
00
ea
ed
00
05
00
f5
fe
00
13
12
0c
00
00
15
11
00
00
00
00
00
00
00
00
00
00
09
0a
00
00
e5
00
07
00
ea
f0
00
10
0d
00
00
00
00
00
00
f8
00
1a
1e
00
00
00
00
00
00
0c
00
00
ef
eb
00
00
00
00
f0
00
00
00
eb
00
00
16
00
00
00
00
00
00
00
00
00
00
00
00
00
00
e4
db
e4
00
00
ea
ea
e2
e7
eb
ef
00
12
14
00
00
ee
f0
00
00
00
00
00
08
00
00
00
00
e0
db
e2
00
00
f3
ef
00
ee
e3
00
f0
00
00
0b
00
00
00
00
00
00
00
00
00
00
00
00
00
00
00
00
00
f6
f6
00
00
ee
f1
00
00
00
0f
0a
00
00
00
e6
00
00
00
00
00
00
00
00
06
0d
0f
fb
f2
00
f7
f2
f6
f1
00
0f
13
14
15
00
ea
00
00
00
00
00
00
00
00
00
00
00
11
0b
0a
00
00
00
00
e4
e7
ef
00
21
22
27
12
00
00
00
00
00
00
00
09
00
09
00
0f
16
24
21
0e
08
0b
10
0b
f6
f9
e7
f8
00
00
0f
00
00
00
00
00
00
00
09
00
00
00
00
00
0b
14
00
0c
0c
0e
11
08
00
00
ea
e8
00
00
19
09
0a
00
00
00
00
00
00
00
00
00
00
00
00
00
00
00
06
0d
10
0e
00
00
00
00
00
0b
12
07
0f
0b
00
00
00
00
00
00
00
00
00
00
00
00
00
00
00
00
00
00
00
00
00
11
00
09
08
0b
00
00
00
00
00
00
00
00
00
00
00
00
00
00
00
00
00
00
00
00
00
00
00
00
00
00
00
00
00
00
00
00
00
00
00
00
00
00
00
00
00
0b
00
00
00
00
00
00
00
00
00
00
00
00
00
00
00
00
00
00
00
00
00
00
00
00
00
00
00
00
00
00
00
0e
00
00
00
00
00
00
f3
00
00
00
00
00
00
00
00
00
00
00
00
00
00
00
00
00
00
00
0d
19
0e
12
09
0b
00
e8
e9
00
ea
ea
f0
f7
00
00
00
00
00
00
00
00
00
00
00
00
0d
0c
0f
17
0b
01
15
17
00
00
c8
d1
f4
f2
fb
ec
00
00
00
00
00
00
00
00
00
00
00
00
00
00
f5
f0
00
0a
08
18
08
06
e4
d2
dd
d5
f0
e9
f7
f8
00
00
00
00
00
00
00
00
00
ec
ef
f1
ee
00
0a
13
1b
26
25
26
19
ef
ea
d9
cd
d8
f4
00
00
00
00
00
00
00
00
00
00
eb
ec
e7
00
0a
04
12
1c
30
30
28
17
f0
ee
d9
c9
e1
e6
e5
f3
00
00
00
00
00
00
00
00
ed
f5
e9
00
00
0f
08
00
07
16
0c
0a
0f
18
00
e1
d1
dc
de
ea
00
00
00
00
00
00
00
fc
f7
fe
00
13
00
00
f2
e7
de
ed
00
00
2a
2d
22
f2
d4
d1
dc
f2
00
00
00
00
00
00
00
f9
00
12
11
00
00
f3
eb
c9
d3
f2
e3
1e
23
25
22
00
de
ce
dc
f3
00
00
00
00
00
00
0c
00
00
00
00
ed
f1
00
f4
da
ea
de
00
18
1d
1e
26
18
f9
d7
dd
ef
00
00
00
00
00
00
12
09
fb
00
00
eb
f5
f3
e5
dd
ee
00
00
00
0b
00
24
1f
00
e5
e5
00
f9
00
00
00
00
00
0f
00
00
00
00
fa
f9
0f
00
07
03
eb
f4
00
00
00
1b
10
00
f2
ec
ef
00
00
00
00
00
00
0e
00
00
12
16
00
00
00
00
06
00
dd
00
00
00
1a
00
00
f6
eb
e9
00
00
0c
00
00
00
00
0e
00
18
1c
00
0d
00
00
00
00
ea
dc
00
00
00
fa
f7
f3
f7
00
e7
00
00
00
00
00
00
00
00
00
15
0b
00
00
f4
00
00
00
ed
e3
eb
00
0f
f4
f5
00
00
1b
00
00
11
00
0c
00
00
0c
00
14
11
00
00
00
f3
00
f5
f2
f9
f4
f9
00
00
f3
e2
f9
00
00
e9
f6
10
00
00
00
00
00
0c
00
0a
0c
00
ff
0f
0a
04
00
ed
00
00
00
00
00
00
ee
00
00
f4
00
0d
00
00
00
00
00
00
00
00
df
00
00
00
04
00
00
00
00
e6
00
05
0a
00
00
00
00
ff
00
00
00
00
00
00
00
09
00
00
00
0b
12
0c
00
00
00
00
eb
e9
00
00
00
00
00
00
f4
00
13
00
00
00
00
00
00
00
00
f1
00
0d
00
00
0e
00
00
ef
00
00
04
00
00
00
f0
0a
15
19
1b
00
00
00
00
00
00
00
0f
00
00
00
12
13
15
0e
15
00
09
ee
00
f0
fa
f2
00
11
16
09
00
00
00
00
00
00
00
00
00
00
f3
00
16
10
00
19
08
00
05
00
f8
00
00
00
00
11
21
11
0f
00
00
00
00
00
00
00
00
00
ee
f1
ed
f2
00
00
e8
04
00
00
00
00
17
11
00
21
21
0d
13
00
00
00
00
00
00
00
00
00
00
00
00
00
16
00
00
00
f3
f6
00
00
00
14
2e
15
00
00
00
00
00
00
00
00
00
00
00
0e
00
00
00
07
1a
1d
00
0e
00
00
1e
1d
21
00
26
1c
00
00
00
00
00
00
00
00
00
00
00
00
00
00
00
00
00
0b
00
00
00
00
00
0e
0f
00
0c
00
00
00
00
00
00
00
00
00
00
00
00
00
00
00
00
00
00
00
00
00
00
00
00
00
00
00
00
00
00
00
00
00
00
00
00
00
00
00
00
00
00
00
00
00
00
00
00
00
00
00
00
00
00
00
00
00
00
00
00
00
00
00
00
00
00
00
00
00
00
00
00
00
00
00
00
00
00
00
ef
00
00
00
00
00
00
00
00
00
00
00
00
00
00
00
00
f1
00
00
00
00
00
09
00
0c
0f
00
08
02
00
e4
e9
f1
00
00
00
00
00
00
00
00
00
00
00
eb
f0
00
00
2a
1d
0e
00
17
00
00
00
19
00
00
00
e9
00
e8
e0
ec
00
00
00
00
00
00
ee
00
00
ed
00
00
00
00
00
0f
12
0e
00
0e
10
11
00
f2
f2
ef
f0
00
00
00
00
00
00
00
00
ea
e0
ee
e7
ea
00
0f
0c
00
00
00
00
0e
11
13
00
08
0a
00
eb
eb
00
00
00
00
00
00
00
00
fe
00
e3
00
0b
11
00
00
f6
00
00
07
16
12
00
21
1a
0e
0e
00
00
00
00
00
00
00
00
00
00
00
00
10
15
0c
f2
ec
ed
f3
00
00
00
00
00
00
0f
0d
00
f2
00
00
00
00
00
00
00
e9
08
00
00
12
0d
f2
f3
00
e7
e6
e5
f0
00
23
23
13
00
12
00
ee
00
00
00
00
00
f1
f2
00
00
14
00
0c
00
00
00
00
00
e5
db
f3
00
00
12
25
1b
17
00
de
00
00
00
00
00
00
ee
00
00
1c
00
00
00
00
00
00
00
db
ca
d6
f2
09
15
19
1f
14
0a
00
00
00
00
00
00
00
00
00
00
00
00
00
ef
f0
00
00
f0
ce
dd
f4
00
15
11
0f
1a
1e
17
00
ef
00
00
00
00
00
00
00
00
00
00
00
00
00
00
00
fc
f2
dc
00
00
0c
0a
16
17
0c
09
00
00
00
00
00
00
00
00
11
00
00
00
00
00
00
00
00
e9
e7
e9
00
04
0a
00
19
00
00
15
02
00
00
00
00
00
00
00
00
ec
08
00
15
19
0c
00
fa
ea
f2
00
00
0b
0e
00
00
00
00
0b
00
00
00
00
00
00
00
f2
00
00
00
00
1f
23
00
00
e2
e3
de
00
02
f2
00
00
0d
00
e4
f4
00
00
00
00
00
00
ed
00
00
00
00
00
20
26
00
f6
ec
e3
e9
00
ed
f0
f9
00
00
00
f0
00
02
00
00
00
00
00
e4
00
00
00
0b
1d
30
1a
00
de
e4
ee
00
00
00
00
ee
00
00
00
00
00
00
00
00
00
00
00
e8
00
00
00
09
2d
36
25
f2
eb
00
00
0c
0d
00
00
00
f0
0b
1a
0c
eb
eb
00
00
00
00
00
00
02
08
00
0a
1a
2a
1f
00
f4
f9
00
00
f5
f4
fd
00
00
07
08
16
00
ea
00
00
00
00
08
1c
07
09
0b
01
0a
13
12
f5
f1
00
f6
00
00
f5
00
00
ef
00
21
10
00
e5
00
00
00
00
00
07
00
0e
31
21
20
1d
0f
00
00
f5
f3
ea
e8
f7
00
00
00
00
15
00
f1
ea
00
00
00
00
00
e9
ec
00
1e
1f
22
24
09
00
00
00
ea
f7
f7
e9
d8
e7
ee
00
00
f2
f1
ef
00
00
00
00
00
ee
eb
00
16
20
1a
0e
11
19
17
00
ee
df
d4
d5
e8
d8
dd
ed
ee
ed
00
00
00
00
00
00
00
00
00
00
0b
10
1e
1e
21
10
00
00
f0
e6
ec
df
e6
e9
ef
eb
ea
ef
ef
00
00
00
00
00
00
00
00
00
00
00
00
00
ef
eb
00
00
00
00
f0
00
00
00
00
00
00
00
00
00
00
00
00
00
00
00
00
00
00
00
00
00
00
00
00
00
00
00
00
00
00
00
00
00
00
00
00
00
00
00
00
00
00
00
00
00
00
00
00
00
00
00
00
00
00
00
00
00
00
00
00
00
00
00
00
00
00
00
00
00
00
00
00
00
00
00
00
00
00
00
00
00
00
00
00
00
00
00
00
00
00
00
00
00
00
00
00
00
00
00
00
00
00
00
00
00
00
fd
fc
00
00
30
30
1f
0f
00
00
00
00
00
00
00
00
00
00
00
00
00
00
00
00
00
11
00
00
e8
00
13
1f
34
37
16
00
00
00
f5
f5
f8
00
00
00
00
00
00
00
00
00
18
13
19
22
14
07
23
17
0e
1c
27
0d
f3
00
ed
f5
00
fc
fd
00
13
00
00
00
00
00
00
10
21
20
0e
06
05
0e
1c
08
12
0a
17
14
00
00
00
f6
e9
00
00
00
00
00
00
00
00
00
00
00
00
f3
f8
00
00
00
11
00
08
00
00
00
00
0f
00
11
00
f3
00
12
00
00
00
00
00
00
fb
00
f6
ee
ed
00
00
00
00
00
00
0f
00
00
00
f3
f7
17
00
00
f8
00
00
00
00
00
00
00
00
f8
00
fc
e1
00
00
00
00
00
e8
05
00
f5
ed
ee
ed
ff
00
fb
fd
00
00
00
00
00
00
00
13
00
00
18
00
00
00
00
19
03
00
00
03
ee
e1
e5
e7
f4
00
00
f7
00
00
00
00
00
00
00
00
13
00
00
0e
15
00
00
00
09
13
00
00
e1
f4
ef
00
00
00
f7
ea
00
00
00
00
00
00
00
15
12
00
ef
00
00
f6
00
00
07
15
00
00
00
0f
0b
00
00
00
f4
ef
fd
00
00
00
00
00
00
00
00
00
ec
00
0f
17
00
01
00
03
00
ed
f7
00
00
00
00
00
e6
f3
ea
fb
10
00
00
00
00
00
00
00
f3
00
12
04
00
00
05
00
00
00
00
f2
e4
f0
00
00
e4
00
00
fe
00
00
00
00
00
00
ee
d1
ee
00
00
00
ec
00
01
eb
00
00
fd
ed
ea
df
e9
00
00
07
00
00
00
00
00
00
00
00
f4
d5
e1
cb
c3
ea
f6
ef
00
00
f6
f8
ff
00
ed
00
ec
00
00
05
00
00
00
00
00
00
00
00
f4
e6
da
b3
a9
bc
cf
d8
f0
f5
ee
f9
fc
e8
00
ef
00
00
00
00
08
00
00
00
00
00
00
00
e2
ea
e6
c7
c6
b1
a1
9a
b0
b7
e3
00
ef
f1
07
00
00
00
e8
00
00
00
00
00
00
00
00
18
00
f2
00
f8
f6
d5
c4
ab
ab
b3
00
06
00
00
00
00
00
0a
ea
e2
00
00
00
00
00
00
00
0f
00
00
00
0a
13
06
00
e8
d5
d3
00
13
18
f3
00
09
14
00
f0
00
15
00
00
00
00
00
00
00
06
0a
00
00
21
1c
10
06
e9
ea
06
1c
17
11
12
0f
00
f7
0f
00
16
00
00
00
00
00
00
00
11
20
18
20
2f
25
1e
18
0f
00
07
10
0f
00
0e
00
00
ff
f0
f2
00
00
00
00
00
00
00
00
00
25
00
00
00
00
0b
0a
09
00
01
0a
05
0e
00
00
00
00
fc
00
00
00
00
00
00
00
00
10
00
00
00
00
fb
00
00
00
0c
11
0b
11
05
0c
00
00
00
00
00
00
00
00
00
00
00
00
10
00
10
00
00
19
00
10
1b
17
1a
10
00
00
00
0d
f2
e5
e9
00
00
00
00
00
00
00
00
00
00
00
00
00
15
0f
10
00
0e
00
0c
21
12
00
00
00
f7
fd
00
ff
00
00
00
00
00
00
00
00
00
00
00
00
00
00
00
00
00
00
00
00
00
20
00
00
00
00
00
00
00
00
00
00
00
00
00
00
00
00
00
00
00
00
00
00
00
00
00
00
00
18
00
00
00
00
00
00
00
00
00
00
00
00
00
00
00
00
00
00
00
00
00
00
00
00
00
00
00
00
00
00
00
00
00
00
00
00
00
00
00
00
00
00
00
00
00
00
00
00
00
00
00
00
00
00
00
00
00
00
00
00
00
00
00
00
00
00
00
00
00
00
00
00
00
00
00
00
00
00
00
00
00
00
00
0d
00
00
00
fb
00
00
00
00
00
00
00
00
00
00
00
00
00
00
00
0f
00
00
00
00
00
10
0f
08
12
00
00
00
f5
fc
00
00
00
0f
00
00
00
00
00
00
00
0e
11
00
00
f8
0c
00
f8
ee
00
00
00
0e
17
10
00
ee
00
00
00
00
00
00
00
00
00
00
00
16
22
14
12
0e
05
00
00
ed
00
00
08
00
00
f7
fc
00
00
00
00
00
00
00
00
00
00
00
00
11
1f
18
00
0c
0c
0b
00
00
00
00
00
00
00
00
f0
d4
00
00
ed
fb
00
00
00
00
00
11
10
00
0b
12
00
00
18
13
13
10
0f
13
14
1c
0b
12
00
e9
00
00
e9
00
00
00
00
00
00
00
00
00
ea
00
f5
0e
1d
19
0d
00
16
0a
0d
14
09
00
00
f1
11
00
e6
fa
00
00
00
00
00
00
f3
fa
00
00
00
15
12
00
00
d0
ce
00
0e
0b
00
eb
ec
f3
1a
00
df
f1
00
00
00
00
00
00
f5
f0
f1
eb
00
f9
e2
ce
b5
a9
c4
00
00
00
00
f2
eb
00
0b
df
f0
f9
00
00
00
00
00
00
ed
f5
e3
ca
d9
ba
ae
b5
91
cd
00
00
00
00
00
00
ec
00
00
eb
fa
00
00
00
00
00
00
00
e4
d8
c6
aa
b0
8a
ca
e4
f0
00
00
00
00
f1
ea
e0
ec
00
f8
f9
00
17
00
00
00
00
00
00
e6
ce
bc
b2
bb
dd
00
0b
00
0a
09
00
00
e8
e8
ed
f3
00
01
fb
00
10
00
00
00
00
00
00
f4
db
f4
f8
f4
15
1e
19
0f
07
14
00
0a
f5
00
00
00
0c
00
13
15
0e
00
00
00
00
00
00
00
00
11
0d
0e
08
14
13
00
03
00
00
f1
00
00
00
eb
00
00
12
1e
00
00
00
00
00
00
14
0c
09
0e
0e
09
0a
00
0e
09
03
00
f1
f2
00
18
15
00
00
00
00
17
00
00
00
00
00
00
00
00
00
0b
05
00
f6
00
08
11
00
00
00
f7
00
0e
1a
00
e6
f1
f7
23
15
00
00
00
00
00
1b
00
00
00
0a
00
f5
f0
f0
09
14
00
00
00
00
00
10
00
e6
f2
00
1f
20
00
00
00
00
00
00
00
00
11
00
ef
f5
00
00
00
1b
00
00
00
00
00
00
00
00
08
0d
14
14
00
00
00
00
00
12
00
00
00
00
00
00
00
ef
00
13
00
f8
f3
00
14
00
00
00
00
00
00
11
00
00
00
00
00
14
00
00
00
00
00
0e
07
00
0b
0a
00
ed
00
00
0e
0a
04
12
00
0f
0f
00
00
00
00
00
00
00
20
2c
0f
15
0e
00
08
00
f1
07
00
ec
00
00
00
11
06
00
00
00
00
00
00
00
00
00
00
00
00
00
1d
23
0e
00
00
00
00
00
f1
f9
ee
e8
f6
ea
f4
00
00
00
00
00
00
00
00
00
00
00
13
00
00
0b
21
1b
00
00
00
00
00
f2
f0
00
e9
d5
e4
ed
f3
fc
00
00
00
00
00
00
00
00
11
0c
00
0c
05
03
00
0b
11
00
15
17
16
f1
e1
e5
f8
f7
00
00
00
00
0f
00
00
00
00
00
00
f9
00
00
00
15
12
13
00
00
00
00
00
00
00
00
00
00
00
00
00
00
00
00
00
00
00
00
00
00
00
00
00
00
00
00
00
00
00
00
00
00
00
00
00
00
00
00
00
00
00
00
00
00
00
00
00
00
00
00
00
00
00
00
00
00
00
00
00
00
00
00
00
00
00
00
00
00
00
00
00
00
00
00
00
00
00
00
00
00
00
00
00
00
00
00
00
00
00
00
00
00
00
00
00
00
00
00
00
00
00
00
00
00
00
00
00
00
0c
00
00
00
00
00
00
00
00
00
00
00
00
00
00
00
00
00
00
00
00
00
00
00
00
00
00
00
00
18
00
eb
e6
00
f0
ee
00
00
f6
f6
00
00
00
00
00
00
00
00
00
00
00
00
00
00
00
00
f4
f7
ee
ee
f4
00
00
00
00
0a
00
00
fa
00
00
00
00
00
00
00
00
00
00
f4
00
00
00
00
00
00
03
11
00
00
00
00
00
17
16
00
00
0f
00
00
00
00
00
00
00
00
00
f6
f5
00
00
0e
12
00
13
00
0e
00
13
12
e7
00
00
00
00
00
00
00
00
00
00
00
00
00
00
e9
e8
ee
00
16
10
00
00
15
00
00
00
00
f9
00
0b
00
00
00
00
00
00
00
00
00
00
00
00
00
db
00
01
15
13
00
13
15
1e
08
00
00
00
10
00
00
00
13
00
00
00
00
00
00
00
f8
00
18
07
14
09
00
08
00
26
05
00
eb
00
0d
17
00
f4
00
12
20
00
0c
00
00
00
00
00
f7
0d
27
0d
15
18
14
21
1b
00
d6
b3
ce
00
11
00
00
00
00
00
00
f8
00
00
00
00
00
00
00
00
24
16
15
12
11
1b
00
ce
9b
c0
fc
f7
00
00
00
00
00
00
ff
00
00
00
00
00
00
00
00
12
1a
06
24
0e
00
f0
d3
ac
a2
dd
00
00
0c
00
f3
ef
f5
f8
f1
00
00
00
00
00
00
00
00
08
00
fe
00
00
e8
b7
aa
c5
eb
f9
ec
00
09
00
d5
e9
ff
00
f0
00
00
00
00
00
00
00
00
ed
e7
e1
eb
df
c6
a8
bb
de
ef
e9
f1
00
00
00
d8
e8
00
ee
f0
f8
00
00
00
00
00
00
f2
e0
da
d1
cc
cd
cb
d2
e1
ea
ee
eb
ef
f2
00
f0
e5
e8
00
f5
ff
00
00
00
00
00
00
00
00
e3
d7
c9
b1
ce
df
e8
f1
00
00
00
f6
00
00
00
00
ea
00
00
00
00
13
00
00
00
00
00
f7
e6
cd
ca
d8
f9
00
00
f4
fa
f4
00
0a
00
00
00
15
00
00
00
00
00
17
00
00
00
00
00
00
e5
dd
e8
00
00
00
12
f7
f7
ef
00
00
ee
f1
00
05
00
eb
00
00
00
0b
00
00
00
00
00
f5
ed
e6
00
1a
24
00
0d
00
e7
f4
00
00
ec
f1
e1
00
00
f4
f7
00
f7
00
00
00
00
00
00
0c
fd
00
1c
00
00
00
16
00
00
00
00
0a
00
00
e7
00
00
00
00
00
00
12
00
00
00
00
0c
0b
00
1c
00
fa
ef
00
18
1a
09
07
08
12
17
08
00
1a
00
00
00
1a
17
12
00
00
00
00
00
00
15
23
1d
13
0c
10
0e
16
0c
16
00
0d
18
15
0f
0c
00
04
14
15
10
0e
00
00
00
00
00
f6
fb
00
23
1c
06
0c
00
09
07
0b
00
13
14
00
10
0a
00
05
13
14
00
00
00
00
00
00
00
00
00
00
00
ef
0c
10
ee
00
0a
f1
00
00
00
16
0e
00
00
00
00
00
00
00
00
00
00
00
00
00
00
ee
00
00
11
00
f8
00
13
e0
00
0c
10
00
f5
00
00
00
00
00
00
00
00
00
00
00
00
00
00
eb
00
00
0e
00
f4
f3
00
18
10
04
13
00
00
0e
00
f4
00
00
00
00
00
00
00
00
00
00
00
00
00
00
00
00
0c
00
00
00
00
00
00
00
fa
00
00
00
00
00
00
00
00
00
00
00
00
00
00
00
00
00
00
00
00
00
00
00
00
00
00
00
00
00
00
00
00
00
00
00
00
00
00
00
00
00
00
00
00
00
00
00
00
00
00
00
00
00
00
00
00
00
00
00
00
00
00
00
00
00
00
00
00
00
00
00
00
00
00
00
00
00
00
00
f6
00
00
00
00
00
00
00
00
00
00
00
00
00
00
00
00
00
00
00
00
00
00
00
00
00
e6
f2
e9
00
00
00
00
00
00
00
00
00
00
00
00
00
00
00
00
00
00
00
ee
e4
e0
03
00
0a
00
e5
00
00
0b
f1
00
00
00
f0
00
09
00
00
00
00
00
00
00
00
00
f0
e7
ee
00
11
11
19
10
00
09
00
03
00
f3
00
00
00
16
0e
0c
00
00
00
00
00
00
00
f0
ef
ec
00
10
00
11
17
12
00
00
00
ed
00
00
00
eb
f0
00
0f
00
00
00
00
00
00
00
f0
f1
00
e9
00
0c
12
1c
00
00
ec
e0
00
00
00
00
00
f5
00
00
00
e8
00
00
00
00
00
00
00
ed
e2
00
00
00
15
0a
00
00
00
ef
00
00
00
00
00
1b
16
00
f5
00
00
00
00
00
00
00
00
e8
e6
00
00
18
19
0b
0e
00
e9
f8
00
17
f5
00
00
00
00
00
00
05
07
00
ec
00
00
00
00
00
00
00
0e
25
27
09
00
00
e8
00
00
00
00
00
00
00
00
00
15
00
ef
00
00
00
00
ef
00
1a
00
15
1a
11
1a
07
12
00
f0
ec
f3
f3
00
00
00
f9
00
00
00
19
00
00
00
00
00
00
00
13
15
21
1a
00
06
15
20
00
00
ef
eb
f3
00
eb
ef
f5
00
00
2a
1c
00
00
00
00
00
00
09
00
19
19
17
05
12
00
0e
10
00
fb
00
00
ef
00
12
00
ec
00
18
00
f4
f4
00
00
00
00
00
00
09
0e
0f
0b
11
13
0e
f1
f0
00
00
00
08
0d
00
ec
00
0a
00
ef
f0
00
00
00
00
00
00
00
00
00
11
07
15
10
0e
00
00
00
f5
00
0a
00
f7
00
00
00
00
f1
00
00
00
00
00
00
00
ec
e8
f9
f8
0c
01
07
0f
1b
00
00
f4
ef
ea
00
f1
00
00
00
00
f7
00
f0
00
00
00
00
00
ed
dd
e5
f8
00
00
02
16
20
10
00
dd
e5
e1
f0
00
0d
0c
00
00
eb
ef
00
00
00
00
00
00
ea
ef
ef
db
ed
ef
07
0c
1e
0b
ed
e6
de
d2
ed
0f
1b
18
00
00
ea
ef
00
00
00
00
00
00
ef
00
00
ea
f4
ef
00
00
1a
13
f3
ea
de
e9
00
12
11
1d
12
f2
ee
f6
00
00
00
00
00
00
f5
00
f6
00
00
00
00
ee
00
0c
fc
00
00
00
08
0d
0d
07
09
f2
ef
00
00
00
00
00
00
00
00
00
00
17
00
0f
f3
00
f0
00
00
13
00
08
05
02
0f
0f
0f
00
f1
00
00
00
00
00
00
00
08
00
ee
00
fa
f7
f1
f7
ef
00
12
18
13
18
13
00
00
10
00
00
f4
00
00
00
00
00
00
00
0d
00
f1
f6
00
00
00
00
00
19
21
18
25
30
21
10
17
13
17
0a
f2
00
00
00
00
00
00
00
00
f5
e2
fc
0f
0e
06
14
1c
1d
10
03
20
00
17
15
15
00
00
07
00
00
00
00
00
00
00
00
00
00
ee
f1
f5
f1
00
00
00
00
00
07
00
0d
04
18
0d
00
00
00
00
00
00
00
00
00
00
00
00
00
f4
00
00
00
00
00
00
f1
f9
00
00
00
00
00
00
00
00
00
00
00
00
00
00
00
00
00
00
00
00
00
00
00
00
00
00
00
00
00
00
00
00
00
00
00
00
00
00
00
00
00
00
00
00
00
00
00
00
00
00
00
00
00
00
00
00
00
00
00
00
00
00
00
00
00
00
00
00
00
00
00
00
00
00
00
00
00
00
00
00
00
00
00
00
00
00
00
00
00
00
00
00
00
00
00
00
00
00
00
00
00
00
00
00
00
00
00
00
00
00
00
00
00
00
00
00
00
00
00
00
00
00
00
00
00
00
00
00
00
00
00
00
00
00
00
00
00
00
fb
ef
e8
e8
ee
00
13
00
00
00
00
00
00
00
00
00
00
00
00
00
00
00
00
00
00
fb
f2
00
f5
00
00
ec
00
00
00
0a
10
14
19
0b
00
00
00
00
00
00
00
00
00
f9
ee
f1
f4
f7
12
00
00
00
e1
ed
00
00
00
0d
14
00
00
0e
13
00
00
00
00
00
00
00
f6
e1
e5
ea
00
00
04
11
00
fe
02
00
00
00
ff
00
11
00
00
00
15
00
00
00
00
00
00
f7
f7
f0
e9
00
00
0e
12
10
00
e7
00
18
00
00
00
00
00
00
ff
00
10
00
00
00
00
00
00
00
00
00
f6
fa
00
10
1e
00
eb
df
f0
00
f5
00
00
e9
e2
e5
07
00
12
00
00
00
00
00
00
fd
00
00
00
00
00
08
19
00
ee
d7
e6
fd
f7
00
fe
e5
db
e9
00
21
00
00
fc
00
00
00
00
f5
00
00
00
00
09
12
17
15
fe
e5
e2
00
09
08
f5
de
e7
fe
00
00
12
00
00
00
00
00
00
f6
00
00
00
00
0d
1e
1c
1c
00
ef
00
00
0e
00
00
00
00
18
2a
2b
14
1a
00
00
00
00
00
00
00
00
f4
00
00
10
11
00
00
f0
00
fc
00
00
18
0e
0f
23
21
1f
07
00
00
00
00
00
00
00
00
e6
e5
f6
00
0d
11
0d
00
ea
00
00
00
f4
0a
20
20
2f
17
15
00
00
00
00
00
00
00
00
00
f4
f7
f6
00
00
09
04
00
00
00
0d
00
00
ee
00
26
30
00
00
00
00
00
00
00
00
00
10
00
00
f9
f6
e7
00
17
00
00
f4
00
03
02
f0
df
00
1d
1a
fa
00
00
00
00
00
00
00
00
00
00
1b
00
00
e4
ef
00
00
f9
00
00
10
00
ed
d9
f6
00
00
ef
ee
00
00
00
00
00
00
00
00
00
1e
00
11
00
00
00
00
fb
00
12
07
00
e9
d6
f7
f7
f5
ed
00
00
00
00
00
00
00
00
00
00
22
21
12
0f
0e
00
fa
ef
04
00
00
00
00
df
ea
eb
e7
f7
00
00
00
00
00
00
00
00
ef
f3
00
00
1a
00
0d
f1
00
00
00
00
f5
00
00
00
e2
de
f7
fb
00
00
00
00
00
00
00
00
e8
f8
00
00
00
0c
08
04
20
11
00
f7
e8
e9
ee
00
e3
d3
ec
fa
00
00
00
00
00
00
00
fc
ea
00
e9
f0
00
17
00
00
17
0e
f7
ed
e5
ed
ee
ec
df
df
f6
00
12
00
00
00
00
00
00
00
00
e4
ed
00
00
00
00
f1
0f
0d
00
ed
e9
e6
e2
d7
ef
f0
00
00
0e
00
00
00
00
00
00
00
00
f7
00
00
00
00
00
00
09
0a
0d
00
04
00
ea
f0
00
00
0d
17
00
00
00
00
00
00
00
00
00
f4
e9
e7
eb
e6
fa
00
00
02
00
00
22
00
00
00
24
1d
14
0f
00
00
00
00
00
00
00
00
00
f9
f0
f0
e1
de
ec
00
00
f1
00
1c
32
33
21
19
20
15
00
00
00
00
00
00
00
00
00
00
00
00
00
00
00
12
00
16
0d
00
00
00
00
13
00
00
00
00
00
00
00
00
00
00
00
00
00
00
00
00
00
00
00
00
00
00
00
00
00
00
00
00
00
00
00
00
00
00
00
00
00
00
00
00
00
00
00
00
00
00
00
00
00
00
00
00
00
00
00
00
00
00
00
00
00
00
00
00
00
00
00
00
00
00
00
00
00
00
00
00
00
00
00
00
00
00
00
00
00
00
00
00
00
00
00
00
00
00
00
00
00
00
00
00
00
00
00
00
00
00
00
00
00
00
00
00
00
00
00
00
00
00
00
00
00
00
00
00
00
00
00
00
00
00
1f
00
1c
12
22
00
00
1d
00
f1
00
f9
00
f0
ef
00
13
00
00
00
00
00
00
00
00
00
00
1b
21
1a
0f
16
0e
00
00
1d
00
0b
15
13
00
00
00
00
1c
00
00
00
00
00
00
00
00
00
04
1b
11
00
00
12
00
00
00
0c
00
00
13
0d
00
00
0b
0d
12
00
00
00
00
00
00
00
09
00
0a
00
00
00
00
00
00
00
09
00
1a
00
00
00
f7
00
00
0f
15
0c
00
00
00
00
00
00
0b
00
00
00
00
00
00
00
00
00
0d
05
11
00
00
00
00
06
0e
00
00
00
00
00
00
00
00
00
00
00
f0
ef
0a
00
07
00
00
00
00
00
00
f5
00
00
00
13
00
f8
00
00
00
00
00
00
00
00
07
06
00
07
10
00
00
00
00
f3
f2
ec
f4
f6
ec
e6
ea
0d
1a
f0
f8
00
00
00
00
00
00
0e
14
00
00
0d
10
f0
e4
00
00
00
0b
00
00
00
00
f2
00
00
00
dc
ee
00
00
00
00
00
00
11
10
f6
f8
00
00
e3
00
00
14
18
14
16
0b
0b
0f
00
06
e6
dc
e3
e6
f8
00
00
00
00
00
00
00
14
f7
f6
00
00
0e
11
19
1b
13
0b
00
00
04
00
05
db
de
ed
e7
00
00
00
00
00
00
00
00
00
f4
00
0e
00
00
19
1e
0a
0a
00
0d
0a
07
00
00
00
00
00
00
00
00
00
00
00
00
00
f1
db
e6
f8
ed
f2
00
10
19
00
00
00
00
00
00
00
00
00
0c
0f
00
00
00
00
00
00
00
00
02
de
ce
b3
b3
bf
da
f4
00
00
00
00
00
00
00
09
0d
0f
0f
0d
14
00
00
00
00
00
00
0e
00
eb
d2
bf
ac
a9
a5
a0
af
d4
ed
00
00
00
10
17
0d
1a
23
09
0d
00
00
00
00
00
00
0d
fb
f9
fb
eb
f2
d7
b2
a6
9c
b4
d0
e0
f8
0f
0e
11
09
15
09
00
0d
f5
00
00
00
00
00
16
00
12
1f
00
00
00
00
00
da
e0
f4
e1
00
00
f8
00
00
14
00
00
1b
f6
00
00
00
00
00
1a
0e
1f
17
19
15
22
35
2e
25
16
00
f3
ee
00
00
f3
0f
0f
00
18
18
00
00
00
00
00
f8
00
07
0b
0d
0c
16
28
22
22
19
1b
00
ef
f3
ee
00
00
00
00
10
10
00
00
00
00
00
00
f3
ef
00
00
02
19
1d
0d
15
13
16
16
00
fc
f7
00
00
00
1c
f5
f3
00
00
00
00
00
00
00
00
00
00
00
ea
00
00
00
00
00
f2
00
00
00
00
0b
00
00
00
f7
f1
00
00
00
00
00
00
00
00
00
00
00
ea
f5
00
fc
00
13
00
00
00
00
00
00
19
00
ea
00
ea
00
00
00
00
00
00
00
00
0e
0f
14
02
1c
00
00
00
00
f0
00
00
ee
00
15
00
ea
f4
f0
f5
f7
f8
00
00
00
00
00
00
00
00
0b
00
12
10
00
0f
00
fb
18
14
00
17
00
f2
00
00
00
f3
00
00
00
00
00
00
00
00
00
00
00
00
00
f7
00
0a
00
00
05
0f
00
00
0c
00
00
0b
00
00
00
00
00
00
00
00
00
00
00
00
00
00
00
00
00
f8
f9
f9
f8
00
00
00
00
00
00
00
00
00
00
00
00
00
00
00
00
00
00
00
00
00
00
00
00
00
00
00
00
00
00
00
00
00
00
00
00
00
00
00
00
00
00
00
00
00
00
00
00
00
00
00
00
00
00
00
00
00
00
00
00
00
00
00
00
00
00
00
00
00
00
00
00
00
00
00
00
00
00
00
00
00
00
00
00
00
00
00
00
00
ed
00
00
00
00
00
00
00
00
00
00
00
00
00
00
00
00
00
00
00
00
0c
0f
00
00
00
00
00
00
00
ef
00
00
00
00
00
00
00
00
00
00
00
00
00
00
00
07
16
17
29
10
00
00
00
10
00
f3
00
de
e8
00
00
00
00
00
00
00
00
00
00
f0
05
07
ec
00
11
11
07
00
00
00
00
00
00
0a
12
08
00
eb
00
00
00
00
00
00
00
f0
eb
dd
e1
00
00
00
0d
10
00
f7
00
00
f7
00
12
00
11
00
00
00
ee
01
00
00
00
00
00
ed
00
e8
e2
00
13
00
13
00
00
00
12
00
f9
ed
00
00
00
1d
00
f4
f5
00
00
00
00
00
00
00
00
e4
f0
00
00
fa
00
00
00
0a
09
00
f1
00
f4
f8
f5
00
14
00
00
00
00
00
00
00
00
00
ea
f2
00
00
00
00
00
00
00
00
00
00
00
00
00
f6
f3
fa
08
00
0b
05
00
00
00
00
00
00
00
00
00
00
00
f4
00
00
1c
15
17
00
fd
f6
00
07
00
00
00
09
00
e9
f1
00
00
00
00
00
08
00
00
00
e5
e3
fa
00
00
16
15
ec
fd
00
05
0b
00
00
f0
00
00
00
00
00
00
00
00
00
00
00
f9
00
ec
ee
fb
00
00
1c
00
f5
f5
00
00
0e
f7
00
00
00
00
00
00
00
00
f1
00
00
e9
f5
f3
00
0e
00
f2
e3
00
00
00
00
f6
f1
00
06
00
ea
e6
f2
ed
00
00
00
00
00
f1
00
ed
e7
00
20
20
03
fc
ec
ed
00
00
00
f6
ea
ec
e4
db
e5
e0
ed
e3
00
00
00
00
00
00
f0
00
00
0e
15
00
12
f9
f7
00
1f
1b
00
00
c7
d0
cd
d2
dc
e3
e5
ee
00
00
00
00
00
00
00
00
00
23
13
00
0a
00
f7
00
17
1d
00
00
ce
dc
ca
c6
f0
f3
00
00
00
00
00
00
00
00
00
00
00
16
00
00
05
00
00
00
00
0f
f2
e9
db
d5
d8
e6
ed
f1
f3
00
00
00
00
00
00
00
00
11
11
09
eb
00
0a
0e
00
00
fc
00
f4
f9
ec
ea
f8
00
00
00
00
00
00
00
00
00
00
00
03
07
00
00
ec
00
00
0f
00
fa
00
fa
ee
14
0f
00
fc
f6
00
00
04
00
02
00
00
00
00
00
00
0d
12
14
00
00
00
00
00
00
00
00
00
32
0a
00
00
00
08
11
07
00
00
00
00
00
00
00
00
11
00
06
0a
ea
00
e9
00
f2
00
ff
00
18
15
17
17
0c
0f
15
06
00
00
00
00
00
00
00
00
00
06
00
00
00
e8
e1
00
ea
00
01
00
00
15
28
13
1e
1a
10
08
00
00
00
00
00
00
00
00
00
ed
e3
e6
00
00
00
00
00
e4
00
00
17
14
28
20
1f
13
1f
12
02
00
00
00
00
00
00
00
ec
e4
e5
db
00
0b
eb
00
0c
00
00
0e
00
0c
11
15
f9
00
00
00
00
00
00
00
00
00
00
00
e6
e2
ec
e8
00
00
e9
ec
0c
11
00
11
00
08
00
06
01
00
00
00
00
00
00
00
00
00
00
00
00
00
ed
ef
00
ef
00
03
ff
00
f1
0d
00
00
00
00
00
ee
00
00
00
00
00
00
00
00
00
00
00
00
00
00
00
00
f2
00
00
00
00
00
00
00
00
00
00
00
00
00
00
00
00
00
00
00
00
00
00
00
00
00
00
00
00
00
00
00
00
00
00
00
00
00
00
00
00
00
00
00
00
00
00
00
00
00
00
00
00
00
00
00
00
00
00
00
00
00
00
00
00
00
00
00
00
00
00
00
00
00
00
00
00
00
00
00
00
00
00
00
00
00
00
00
ef
00
00
00
00
00
00
00
00
00
00
00
00
00
00
00
00
00
00
00
00
00
00
00
00
00
e9
00
00
00
07
00
f1
00
00
00
00
00
00
00
00
00
00
00
00
00
00
00
00
00
00
00
00
05
15
10
f4
f5
00
00
ef
00
00
00
00
00
f2
00
00
00
00
00
00
00
03
03
0a
19
0c
00
f2
00
1e
00
14
fa
e8
e6
e2
ef
0a
00
00
00
00
00
00
00
00
00
00
00
00
0f
15
11
0b
00
00
00
0d
0d
13
00
00
00
f0
e8
f1
0c
0a
03
00
00
00
00
00
00
00
00
06
00
0f
11
00
1b
13
00
00
00
00
f3
ff
00
00
eb
e0
e3
00
f2
eb
00
00
00
00
00
00
0a
00
00
e2
00
00
00
12
00
1e
14
00
00
f1
00
00
de
00
00
00
00
00
00
00
00
00
00
00
00
00
00
00
00
00
00
00
00
1d
20
11
00
00
06
14
00
00
17
1e
14
0d
00
00
00
00
00
04
04
00
ed
00
f0
ec
00
00
14
17
12
d7
dd
f0
00
00
00
08
11
1e
16
18
11
00
00
00
00
0d
0e
f1
e8
00
de
dc
00
00
29
1b
ec
bf
e2
ea
00
00
f7
00
f7
00
17
20
00
00
00
00
00
00
06
ea
00
00
00
05
19
27
39
11
cf
cb
ed
00
00
00
f4
e7
e8
00
00
0e
00
00
00
00
00
00
00
e8
00
10
12
1c
19
2d
2b
f5
d1
de
e2
f0
00
00
f7
00
e2
eb
00
0c
00
00
00
00
00
00
04
ed
17
13
12
0e
19
29
00
dd
b6
d2
f2
e9
f7
f4
00
00
ed
e8
13
14
00
00
00
00
00
00
0c
00
10
19
33
18
14
1f
f7
b9
c5
f8
07
e9
f3
f1
00
09
e7
e4
0d
0c
00
00
00
00
00
00
04
0f
10
00
1c
1c
17
00
b3
a2
da
00
08
ee
fc
ec
f0
00
04
f2
00
05
00
00
00
00
00
00
00
00
0a
fa
f4
00
e9
ca
a5
ca
ef
00
ee
f8
03
eb
f6
00
14
08
10
00
00
00
00
00
00
00
ef
00
ec
e6
e1
ec
d0
c6
d0
ef
f4
f1
f0
e9
00
00
ee
07
14
0f
0d
ef
00
00
00
00
00
00
ed
00
eb
de
ec
e2
cb
d5
f7
00
00
00
f2
ef
17
00
00
10
08
06
00
f4
00
00
00
00
00
00
00
f2
ed
e0
ec
f3
d4
fa
00
05
00
00
00
00
00
f8
00
00
00
00
00
eb
00
00
00
00
00
00
00
00
f0
ea
e1
e7
e9
10
12
00
00
00
00
00
f6
00
00
f2
00
05
06
00
00
00
00
00
00
00
00
00
02
00
00
00
00
00
00
fa
00
00
15
14
00
18
00
09
0f
00
00
00
00
00
00
00
00
00
00
00
05
10
06
00
0b
00
00
0b
00
07
15
00
15
00
00
10
0c
ed
ea
00
00
00
00
00
00
00
00
00
09
09
06
0e
0a
06
16
00
00
00
00
f7
00
13
17
00
00
00
00
00
00
00
00
00
00
00
00
00
00
00
00
0f
19
00
00
0e
08
00
eb
00
f3
00
08
00
00
00
00
00
00
00
00
00
00
00
00
00
e8
e6
e4
00
e9
e6
ec
00
00
00
0d
00
f0
00
0e
00
00
07
00
00
00
00
00
00
00
00
00
00
00
00
00
00
00
00
00
00
00
00
ea
00
00
eb
00
00
00
00
00
00
00
00
00
0d
00
00
00
00
00
00
00
00
00
00
00
00
00
00
00
00
00
00
00
00
00
00
00
00
00
00
00
00
00
0c
0d
0d
00
0d
00
00
00
00
00
00
00
00
0d
00
00
00
00
00
00
00
0c
00
00
0c
00
00
00
0c
00
00
00
00
00
00
10
18
10
00
00
00
0c
12
00
00
00
00
00
00
00
0c
00
00
0d
0c
00
00
00
00
00
00
0c
00
10
1a
15
00
fa
fc
00
00
f6
f4
00
00
00
00
00
00
00
00
00
00
00
00
00
00
00
00
00
fb
00
00
0c
f4
e4
e6
00
ec
00
0c
00
00
f6
00
00
00
00
00
0d
00
00
00
00
0d
08
0a
00
f9
00
f1
00
00
00
00
00
15
1d
00
f2
00
00
f1
fb
f7
00
00
0c
00
00
0d
11
10
13
11
00
00
18
0e
00
00
14
00
00
f5
f9
fb
00
00
0e
00
fc
f4
f5
00
0c
00
00
0e
00
15
15
12
1a
00
00
13
09
0e
0f
00
f7
00
00
e9
f5
00
00
f4
00
00
00
00
00
00
00
00
0a
15
25
00
0e
00
0b
22
25
00
0b
14
00
00
00
00
0e
00
00
00
00
00
00
00
00
00
00
0e
0a
1a
24
12
1f
20
13
0d
00
18
00
14
16
13
16
00
0b
0d
00
14
00
f3
00
00
00
00
00
00
00
11
0b
0b
1a
19
f8
ec
e6
e0
ed
00
00
11
00
13
19
18
00
e9
f3
ef
00
00
00
0c
00
00
00
00
00
f2
ea
e5
c2
b9
cf
d0
e6
00
00
fa
f5
00
12
14
f0
ec
00
fc
00
00
00
00
00
00
f5
eb
e6
cf
a9
97
9c
d5
ee
09
15
10
0d
00
00
0f
00
ef
f3
fc
f9
f4
13
00
0d
00
00
00
f6
e3
c0
af
9a
b6
e3
00
18
1c
1b
12
00
00
00
00
00
ee
00
00
00
15
11
00
00
00
00
00
00
ec
d7
d7
e6
00
13
2b
35
21
16
00
00
00
00
00
00
00
13
0e
29
19
10
00
00
0d
0d
00
00
ee
00
14
15
1f
21
24
14
0d
0c
0a
09
00
00
00
00
00
0c
1f
25
1c
06
00
00
00
00
00
00
fa
00
20
27
2e
0c
0d
00
00
0f
19
0e
09
0b
00
12
00
25
19
19
22
00
16
00
00
00
0d
10
00
00
00
0f
15
0a
00
00
00
00
0a
08
0a
10
00
00
00
1a
1f
26
21
00
00
00
00
00
00
16
00
00
f9
00
f8
00
00
00
e9
f2
f2
00
09
11
00
00
f3
01
17
14
00
00
10
00
0d
00
00
00
eb
ea
e9
f4
e9
00
00
00
eb
f6
f5
f7
00
00
00
00
eb
00
00
f7
f7
00
00
00
00
00
0d
0f
ee
e2
ee
f0
e1
f2
00
f6
fb
00
ef
fc
eb
ef
00
00
00
0b
f4
f5
00
00
00
00
00
00
0e
1d
00
fa
f4
f6
f4
e4
00
00
00
1b
00
fc
f4
e9
ef
00
0f
13
00
00
00
00
00
00
00
0c
00
15
00
15
00
00
00
00
00
00
00
00
00
00
09
03
00
00
00
f2
00
00
00
00
00
00
00
00
00
00
00
00
13
22
00
16
0b
00
00
00
00
00
18
00
f9
fc
eb
00
00
00
00
00
00
0d
0d
00
00
00
16
00
0f
00
00
1c
00
0c
00
00
00
00
16
20
f6
e9
f2
ec
00
00
00
00
0c
0d
00
0c
00
00
14
18
20
19
22
0b
12
00
00
00
00
00
12
00
00
00
00
f2
00
00
00
00
00
00
0d
00
0c
00
00
fd
f8
00
20
22
27
11
00
00
05
00
00
15
17
0e
00
00
00
00
0c
00
00
00
0c
00
00
00
00
00
00
00
00
00
0c
00
0c
0c
00
0e
00
00
12
00
0e
00
00
0c
00
00
00
00
00
00
00
00
00
00
00
00
00
00
00
00
00
00
00
00
00
00
00
00
0d
00
00
00
00
00
0e
00
00
00
00
00
00
00
00
00
00
00
00
00
11
0f
00
10
00
00
00
00
00
0e
00
00
00
00
00
00
00
00
00
00
00
00
00
00
11
10
19
22
18
17
25
1b
12
00
00
00
00
00
00
00
00
00
00
00
00
00
00
00
00
00
00
12
00
1a
14
2d
27
26
27
1b
00
00
e6
f6
f6
f8
00
00
0e
00
00
00
00
00
00
00
00
00
00
00
00
1b
1c
00
1d
24
29
0d
fb
e9
da
db
d6
f2
f0
00
f9
00
00
00
00
00
00
00
00
00
00
00
00
11
10
f2
04
00
ef
c9
d7
c1
c3
d8
e5
e3
e5
ed
00
00
12
00
00
00
00
00
00
0a
00
eb
00
19
00
0e
0d
00
ed
b6
94
ce
e6
ed
0c
f2
00
00
00
00
00
00
00
00
00
f5
00
00
00
00
14
00
1a
11
05
ec
c9
bc
ad
f9
00
ec
ed
00
00
00
00
00
00
00
00
00
00
00
00
0a
00
00
00
1a
0d
14
06
eb
c0
af
cd
f5
fa
e7
05
0e
00
00
00
19
00
00
00
00
00
00
00
00
09
00
0d
0b
08
28
26
fa
cc
d8
fb
00
00
00
0b
19
00
00
00
00
00
00
00
00
00
00
f9
00
f6
f7
00
05
0a
1e
00
e6
d0
0e
16
1d
1d
22
1c
2b
00
00
16
18
00
00
00
00
00
00
00
f4
e8
eb
00
00
00
00
eb
d4
f7
00
27
1c
2a
1f
20
21
0d
17
0f
00
00
00
00
00
00
fa
e6
d4
db
00
00
00
00
00
dc
ef
00
0e
09
00
0f
0c
0e
08
0d
00
16
00
00
00
00
00
00
fc
f1
e8
e3
fb
00
1d
0d
00
ef
f2
00
00
f0
f1
00
02
00
04
0e
0e
18
00
00
00
00
00
00
00
fa
04
ea
00
0e
13
13
00
fb
00
00
07
00
0e
00
00
03
1a
2a
10
ff
fe
00
00
00
00
00
00
00
f5
00
00
0c
00
0e
1b
00
00
17
0d
f2
00
00
00
00
1c
1a
16
00
00
00
00
00
00
00
0f
00
00
00
00
00
00
0b
07
00
00
0d
00
f5
00
00
00
00
0d
00
00
0e
11
00
00
00
00
00
11
00
00
f0
00
00
00
11
00
00
00
0c
f6
f1
00
09
f0
f3
00
00
07
12
15
00
00
00
00
00
00
00
e2
ec
00
00
00
00
00
14
00
00
00
f3
00
00
da
e6
00
00
13
19
19
00
00
00
00
00
00
00
e7
00
00
0d
00
17
1e
00
00
26
00
00
00
e5
e2
f0
fa
00
0a
0a
00
00
00
00
00
00
00
00
e4
fc
00
ef
00
00
00
00
09
0f
00
15
00
f4
e9
fc
00
00
00
00
09
00
00
00
00
00
00
00
00
00
00
19
00
00
00
08
0d
00
00
00
00
00
f5
00
fb
00
00
00
00
00
00
00
00
00
00
00
00
00
12
13
16
19
00
ef
05
ee
e8
00
f3
00
f8
f0
ee
f3
00
fa
00
00
00
00
00
00
00
00
00
00
00
00
00
05
00
00
00
00
e1
fa
df
dd
d7
de
00
00
fc
ec
00
00
00
00
00
00
00
00
00
00
00
f1
00
00
00
03
17
25
00
00
e7
df
e1
f8
00
17
0f
00
00
00
00
00
00
00
00
00
00
f6
e3
e3
eb
00
0c
12
21
00
0d
21
00
f7
f6
f8
00
15
19
00
00
00
00
00
00
00
00
00
00
00
f0
ec
f0
e2
f3
16
02
e3
e6
f1
00
ee
f9
fd
00
00
00
00
00
00
00
00
00
00
00
00
00
00
00
00
00
00
00
00
00
00
00
00
00
00
00
00
00
00
00
00
00
00
00
00
00
00
00
00
00
00
00
00
00
00
00
00
00
00
00
00
00
00
00
00
00
00
00
00
00
00
00
00
00
00
00
00
00
00
00
00
00
00
00
00
00
00
00
00
00
00
00
00
00
00
00
00
00
00
00
00
00
00
00
00
00
00
00
00
00
00
00
00
00
00
00
00
00
00
00
00
00
00
00
00
00
00
00
00
00
00
00
00
00
00
00
00
00
00
00
00
f4
00
00
00
00
00
00
00
00
00
00
00
00
00
00
00
00
00
00
0d
00
00
00
00
e7
00
00
00
eb
f4
f1
00
22
10
00
00
00
00
00
00
00
00
00
00
00
00
00
00
00
00
00
00
00
00
1a
1d
24
22
00
00
12
11
00
00
00
f5
f3
00
00
00
00
00
00
00
00
00
00
ee
ed
00
0b
25
21
20
24
0f
23
15
13
10
00
00
fe
ec
f4
00
0b
00
00
00
00
00
00
f8
ee
00
ee
06
11
16
08
0b
10
13
18
0e
00
0b
00
00
00
e5
e9
f7
00
00
00
00
00
00
0d
00
00
00
00
1a
0e
00
00
00
00
00
00
ec
00
0e
0d
00
00
fa
f3
f2
00
00
00
00
00
0a
00
00
00
1e
0f
15
00
ea
e5
f2
ec
f0
e7
dd
1c
10
00
00
00
00
00
00
00
00
00
00
00
00
10
00
0e
1b
10
00
00
f1
ee
e9
fb
00
ce
00
0c
08
00
0c
0c
00
0d
00
00
00
00
00
00
00
00
00
0c
13
00
00
00
f2
ee
f1
17
f2
ed
00
04
00
00
00
00
0d
0e
07
00
00
00
00
00
00
09
00
00
00
00
00
00
f5
eb
e5
08
00
00
0b
00
e9
ed
00
00
09
0a
00
00
00
00
00
00
00
00
00
00
fb
00
00
00
00
00
00
14
00
00
f3
e4
00
ec
00
00
09
00
00
00
00
00
00
00
00
00
00
d9
00
f6
fa
ee
f2
00
00
16
07
00
eb
ed
00
e5
00
00
0c
00
00
00
00
00
00
00
00
00
00
f0
00
f5
f2
f7
f1
00
00
00
0a
00
f4
f5
00
e8
00
00
0c
0a
00
00
00
00
00
00
00
00
00
00
00
f1
f1
00
10
10
00
00
00
fa
00
1a
11
00
00
e8
0b
09
00
00
00
00
00
00
00
00
00
f6
e9
e8
e8
ee
00
00
00
00
ef
00
0d
28
0e
00
ed
e4
e5
ed
f6
00
00
00
00
00
00
00
00
f3
f3
ec
e8
ed
00
00
00
e5
db
f4
00
25
15
1d
00
e5
e5
f3
f1
f8
00
00
00
00
00
00
00
00
ed
ea
00
ef
e5
ea
fd
d5
cc
ec
0b
27
1b
1f
00
00
dd
ef
f5
00
00
00
00
00
00
00
0f
00
00
00
00
eb
f4
f3
f9
e9
ee
f1
00
00
12
16
1a
00
e4
da
00
00
00
00
00
00
00
00
11
00
00
00
e1
e2
f8
00
f3
f1
f5
0c
08
00
00
f7
00
df
e1
e5
ee
00
00
00
00
00
00
00
00
00
00
00
dc
e0
fb
00
00
00
00
14
00
ee
e6
e7
f8
e5
ec
00
00
00
00
00
00
00
00
0a
0c
14
0c
00
00
00
0b
22
0f
0c
16
17
00
00
f8
f1
00
f6
00
00
00
00
00
00
00
00
00
00
12
15
1a
21
20
1e
1f
0b
15
29
1e
35
17
00
00
00
00
00
00
00
00
00
00
00
00
00
00
00
0a
00
15
0f
15
11
25
0a
00
00
11
37
14
00
00
19
00
00
00
00
00
00
00
00
00
00
00
00
00
00
00
00
00
0c
0c
12
0a
1e
1c
12
20
15
1c
14
18
0b
00
00
00
00
00
00
00
00
00
00
00
00
00
00
00
00
00
00
00
00
00
00
00
00
00
00
00
00
00
00
00
00
00
00
00
00
00
00
00
00
00
00
00
00
00
00
00
00
00
00
00
00
00
00
00
00
00
00
00
00
00
00
00
00
00
00
00
00
00
00
00
00
00
00
00
00
00
00
00
00
00
00
00
00
00
00
00
00
00
00
00
00
00
00
00
00
00
00
00
00
00
00
00
00
00
00
00
00
00
f0
00
00
00
00
00
00
00
00
00
00
00
00
00
00
00
00
00
00
ec
00
00
13
00
00
df
00
06
00
00
ee
eb
ef
00
00
00
00
00
00
00
00
00
00
0d
0f
0e
0c
08
08
12
1b
00
1b
00
09
00
00
00
ed
00
eb
de
ea
00
00
00
00
00
00
00
e8
00
00
f1
e7
00
00
00
1d
1a
23
00
09
00
e1
00
00
00
de
ea
00
00
00
00
00
00
f1
e4
e7
00
f7
ed
ec
f8
00
0d
10
0e
15
00
00
00
00
00
01
00
ec
00
00
00
00
00
00
00
00
00
07
00
f9
00
00
00
16
00
10
00
00
00
00
00
fc
00
00
00
00
00
00
00
00
00
00
00
00
0b
00
00
f0
ef
00
0f
00
00
00
00
f1
00
0e
00
f8
00
0d
00
02
00
00
00
00
00
00
00
01
00
00
00
00
00
f1
00
ee
f1
00
eb
e5
00
07
00
00
1b
00
00
15
1b
10
00
00
00
00
00
00
00
00
00
00
f5
eb
00
00
00
00
f0
f4
13
00
0f
00
14
0d
0e
11
12
00
00
00
00
00
00
fe
00
ec
f9
f2
f0
f7
00
14
17
18
00
fe
00
0a
00
00
00
10
05
00
f4
00
00
00
00
00
00
07
00
ec
eb
ff
03
00
00
24
1a
13
00
e1
d8
f6
f3
00
00
00
00
e2
00
00
00
00
00
00
00
08
00
ed
f4
00
00
1e
00
0f
00
00
f3
e3
cc
e7
f9
00
fa
00
00
e7
ed
00
00
00
00
00
00
00
00
ee
00
00
fe
00
00
13
00
00
00
ed
db
ec
f0
d6
e8
00
00
00
00
00
00
00
00
00
00
00
00
e7
f4
00
f0
00
00
00
16
fa
f6
e2
e7
f3
f7
db
00
ea
00
1a
1a
00
00
00
00
00
00
00
01
ec
f2
ec
e7
f2
00
00
00
00
00
eb
00
00
f8
00
00
00
0d
1c
12
00
00
00
00
00
00
00
00
ee
f1
e8
00
00
f3
f7
00
f9
ea
f3
11
00
f0
00
f8
00
00
00
00
00
00
00
00
00
00
00
00
00
00
00
07
f0
f5
00
fc
ee
e7
00
1a
00
00
00
f8
00
00
fa
00
00
00
00
00
00
00
00
00
0f
00
00
00
dc
ef
00
00
f7
f2
00
14
00
00
00
00
0c
0d
00
00
00
00
00
00
00
00
00
1a
1f
1c
0b
00
00
f4
00
19
00
f6
17
17
14
13
00
f8
00
0d
07
00
00
00
00
00
00
00
14
13
00
0c
0e
08
00
00
1b
10
12
00
15
12
18
00
00
00
f4
12
11
00
00
00
00
00
00
00
0b
06
00
0b
28
16
02
00
24
21
19
0c
18
0d
0e
00
00
00
00
11
07
00
00
00
00
00
00
00
07
00
00
0e
1c
34
1b
11
28
29
1c
21
14
1b
21
0a
f0
00
1b
1d
14
00
00
00
00
00
00
00
00
00
00
00
00
18
1b
00
00
1b
10
0e
0d
00
00
21
09
00
00
00
00
00
00
00
00
00
00
00
00
f0
ee
00
00
f5
f4
00
00
de
e2
ee
00
f3
ec
0e
13
07
00
f0
00
00
00
00
00
00
00
00
00
00
00
00
e9
ed
00
00
00
00
00
ee
00
00
00
00
00
00
00
00
00
00
00
00
00
00
00
00
00
00
00
00
00
00
00
00
00
00
00
00
00
00
00
00
00
00
00
00
00
00
00
00
00
00
00
00
00
00
00
00
00
00
00
00
00
00
00
00
00
00
00
00
00
00
00
00
00
00
00
00
00
00
00
00
00
00
00
00
00
00
00
00
00
00
00
00
00
00
00
00
00
00
00
00
00
00
00
00
00
00
00
00
00
00
00
00
00
00
00
00
00
00
00
03
00
00
00
00
f1
00
00
00
00
00
00
00
00
00
00
00
00
00
00
00
00
f3
00
00
04
00
ef
00
0e
1e
00
f4
00
00
00
00
00
0d
00
00
00
00
00
00
00
00
ed
00
00
00
00
00
e7
e2
e1
e8
00
14
17
00
00
0d
00
0d
00
ef
e7
00
00
00
00
00
00
ed
e9
f4
e7
f0
f0
ef
d9
c8
e0
f0
00
0a
12
28
21
00
00
00
14
11
00
00
00
00
00
00
00
00
00
e8
e9
e5
dd
da
e6
de
f5
00
00
00
00
00
00
04
0b
00
00
f5
f9
00
00
00
00
00
00
00
f2
00
e8
e8
e9
dd
f2
ea
00
00
00
09
00
00
e9
00
10
1a
07
0d
00
00
00
00
00
00
00
00
f2
e3
d0
db
ec
dc
ee
00
00
00
00
00
f0
de
eb
f4
00
00
00
00
fb
00
00
00
00
00
00
ec
e6
ec
e6
de
ee
00
e8
00
0a
00
00
e7
ee
ed
00
12
19
e9
00
00
e2
00
00
00
00
00
00
e8
ee
f2
00
ed
f2
e5
00
08
0d
00
f6
f3
00
00
f6
00
00
00
00
e8
e2
00
00
00
00
00
00
00
e7
00
0b
00
10
00
00
0c
12
00
df
f2
00
f7
00
f2
f0
00
00
ec
ef
f0
00
00
00
00
00
00
00
10
00
19
12
00
ff
1f
1a
fd
cf
ed
00
f1
f6
e6
ee
11
00
f6
f4
00
00
00
00
00
00
13
0a
00
00
1a
00
00
02
0c
00
e3
e4
ec
00
f2
f3
e3
00
00
17
00
00
00
00
00
00
00
09
11
27
13
1b
20
19
00
09
13
fc
e3
e5
00
00
00
00
ef
0c
1a
1f
22
13
00
00
00
00
00
08
05
1c
00
11
16
09
0b
0a
1a
eb
e4
00
0e
00
00
0a
00
00
21
20
1d
14
06
00
00
00
00
09
00
22
00
17
1e
0c
07
18
18
f0
00
15
19
17
0a
08
09
10
15
00
00
17
05
00
00
00
00
00
03
08
11
10
18
0a
1a
11
19
11
20
11
12
11
0b
03
00
1d
18
0e
f5
11
00
00
00
00
00
06
10
00
00
16
17
1c
00
00
0c
14
0f
09
11
04
14
0a
09
15
22
20
00
00
00
00
00
00
00
09
14
00
00
00
00
00
10
00
00
00
00
10
0b
00
13
16
00
0b
20
28
00
00
00
00
00
00
00
12
15
00
00
0f
0e
0e
0f
00
00
e4
ec
ec
eb
00
13
00
f8
00
00
18
0a
00
00
00
00
00
00
15
13
09
00
10
0e
f9
00
00
eb
eb
e7
e7
f2
00
00
00
00
18
1f
06
00
00
00
00
00
00
00
08
00
00
00
00
00
f0
00
0d
00
00
e6
00
00
ee
ed
00
08
18
16
00
00
00
00
00
00
00
00
00
00
00
12
17
00
e4
e9
f9
00
00
f5
0d
f9
e3
e7
00
00
03
00
00
00
00
00
00
00
00
00
00
00
f0
f6
00
00
e8
d8
ea
e1
e6
c9
04
00
e2
e5
e7
00
00
00
00
00
04
00
00
00
00
00
00
00
ef
e7
ee
ed
d8
f1
00
e0
dc
cf
00
00
fb
00
00
ef
00
00
f2
00
00
00
00
00
00
00
00
00
00
00
00
00
e6
e3
00
00
00
ea
00
f4
f5
00
00
00
00
00
00
00
00
00
00
00
00
00
00
00
00
00
00
00
00
00
00
00
00
00
00
00
00
00
00
00
00
00
00
00
00
00
00
00
00
0f
00
00
0e
0e
00
00
00
0e
00
0e
00
00
00
00
00
00
00
00
00
00
00
0e
00
00
00
0e
00
00
00
00
00
00
00
00
00
00
00
00
00
00
00
00
00
00
00
00
00
00
0e
00
00
0f
00
00
00
00
0e
00
00
00
00
00
0f
19
0f
0f
13
12
0d
00
00
f4
f8
00
fc
00
00
00
00
00
00
00
00
00
00
00
00
00
0f
00
0e
00
16
18
1d
fc
f7
00
00
f1
fe
f5
f0
00
00
00
00
00
0e
00
00
0f
00
00
11
16
15
24
00
00
0e
15
11
00
00
00
f7
ec
f3
f5
00
00
e1
fa
00
00
00
00
00
00
00
14
19
1b
19
00
00
00
00
0b
14
17
17
0d
00
ec
f0
e9
f5
ed
df
00
00
00
00
00
00
00
00
11
00
00
00
00
fc
00
00
00
00
00
0f
16
00
ec
d7
d8
f3
e6
eb
f0
00
00
0e
00
00
00
00
19
00
00
00
00
00
00
00
00
00
00
09
1d
13
00
da
d0
e4
e0
ea
f0
00
00
00
00
0f
00
00
21
15
fa
f9
f1
00
0e
00
00
0f
1b
28
1e
1c
f7
e2
d3
cf
e5
f1
f1
00
00
0e
00
0f
00
00
14
18
fb
fd
ef
00
12
00
1e
09
1a
3f
30
1e
f4
d5
c1
d0
e2
00
f7
00
00
00
0e
00
00
00
00
00
00
00
f7
f7
00
00
00
08
1f
37
37
17
de
cf
b7
d6
00
00
00
00
00
11
00
00
00
00
00
00
00
00
00
00
00
fe
00
08
1e
24
27
00
db
d3
e1
ee
00
00
00
00
00
00
00
00
00
10
00
fd
fb
00
00
00
00
00
00
0b
10
1f
1d
ee
d8
d7
e8
f3
00
00
00
10
00
0f
00
00
00
00
0d
f7
fe
00
00
f4
00
00
fa
00
09
13
16
00
00
e8
f1
00
00
00
13
17
0e
0f
0e
00
00
11
00
f4
f6
ef
00
f6
00
00
00
09
15
00
00
f6
00
00
ea
18
00
15
10
0f
13
00
00
00
00
10
00
f3
00
f2
f8
00
00
00
00
0a
0f
12
00
ee
d8
f8
fa
00
00
00
00
00
12
00
00
00
00
00
00
f6
00
00
00
1b
00
00
f0
00
00
f6
00
e3
dd
f1
00
00
00
fa
00
13
1c
12
0f
00
00
00
00
00
00
00
00
10
00
00
00
09
00
f2
e8
ec
f7
00
00
00
00
00
1f
1a
13
00
00
00
00
00
00
00
00
00
0a
16
00
00
00
1e
00
f7
e9
ed
00
0a
00
00
00
13
1d
13
00
10
00
00
00
00
00
00
00
08
00
00
00
f5
00
1a
00
00
e4
00
00
1f
16
00
00
00
00
17
00
00
00
00
00
00
00
e6
00
09
00
00
00
00
13
00
00
00
ed
f4
00
00
00
00
00
00
00
0d
00
00
00
0e
00
00
f0
da
00
00
00
00
00
00
00
ee
00
ea
ed
f0
00
00
f3
00
0c
00
f3
00
00
00
00
00
0f
00
00
f6
00
00
00
00
00
00
eb
00
00
f1
f4
f6
13
00
0f
1a
13
f1
fb
00
00
0e
00
00
00
00
00
f5
e7
00
0e
1b
10
00
08
00
00
00
00
00
00
00
0d
15
16
fa
fd
00
00
00
0f
00
0e
0f
00
00
00
09
0e
19
0f
11
00
f9
00
ef
e9
fe
f9
f8
00
11
00
00
00
00
00
00
00
00
00
00
14
16
0c
0d
10
00
ee
00
01
f2
00
f4
d4
e3
fc
ef
00
00
00
fd
00
00
00
00
00
0e
00
00
00
00
00
00
00
00
00
00
00
00
14
00
00
00
00
00
00
00
00
00
00
00
00
00
00
00
0f
00
00
00
00
00
00
00
00
0e
00
00
00
00
00
00
00
00
00
00
00
00
0e
00
00
00
00
00
00
00
00
00
00
00
00
00
00
00
00
00
00
00
00
00
00
00
00
00
00
00
00
00
00
00
00
00
00
00
00
00
00
00
00
00
00
00
00
00
00
00
00
00
00
00
00
00
00
00
00
00
00
00
00
00
00
00
00
00
00
00
00
00
00
00
00
00
00
00
11
0e
00
00
10
00
00
00
00
00
00
00
00
00
00
00
00
00
00
00
0e
00
10
00
00
00
00
00
00
00
00
00
07
00
00
17
00
00
00
00
00
00
00
00
00
00
00
00
00
26
20
f7
f8
fb
f1
f2
00
fb
00
0d
0a
00
00
00
f7
00
00
00
00
00
00
00
00
00
00
18
16
17
1d
00
ff
00
00
13
00
00
00
0f
1a
21
20
0e
00
00
00
00
00
00
00
00
00
12
10
13
1c
13
00
f3
00
0b
00
00
00
f1
ef
f6
ef
00
19
00
11
14
00
00
00
00
00
00
00
11
0b
06
05
11
08
13
00
00
00
00
00
00
00
00
f4
00
19
1f
0c
06
00
00
0b
00
00
00
00
0b
00
00
00
15
00
00
14
0f
00
00
00
00
00
00
0e
0a
13
22
00
00
00
00
00
00
00
00
00
00
00
00
00
00
00
00
00
0c
11
e8
e6
f1
f4
00
00
00
00
15
0f
12
00
f5
00
00
00
00
00
eb
00
00
00
06
05
00
00
16
23
00
ec
f1
00
00
00
00
00
14
00
f5
00
00
00
00
00
00
f8
e0
00
00
00
00
00
f1
00
1a
24
00
ee
00
05
00
f6
fb
00
05
09
02
0f
00
00
00
00
00
f5
e8
00
0b
00
19
00
00
0c
18
0f
00
00
08
04
00
f6
00
00
09
17
00
00
00
00
00
00
00
f9
fd
00
ec
00
1b
00
12
17
13
00
e9
ed
f1
10
00
00
ee
00
00
00
00
00
00
00
00
00
00
f6
00
00
f3
00
0a
0e
09
00
00
e2
ea
dd
00
11
00
00
00
00
00
0e
00
00
00
00
00
00
00
00
00
fa
00
00
04
00
00
00
d7
dd
e0
e9
00
0b
0b
15
18
22
26
14
00
00
00
00
00
00
00
0f
17
00
05
03
12
21
14
00
d5
eb
e9
e9
ef
f7
00
07
11
24
32
15
00
00
00
00
00
00
00
1c
11
02
08
07
13
27
23
00
db
f0
f7
e4
ea
00
00
00
17
1e
1e
14
f8
00
00
00
00
00
00
1e
11
09
07
1a
1d
16
15
00
df
f3
00
e4
dd
00
f0
00
00
00
1e
0c
00
00
00
00
00
00
00
13
17
16
10
12
0f
18
13
00
00
00
00
e5
f5
ea
00
00
00
0d
00
00
00
00
00
00
00
00
00
0f
00
00
1a
1f
09
1b
0f
15
17
00
00
f1
f2
00
00
00
f5
00
ea
eb
00
00
00
00
00
00
00
00
eb
00
09
09
00
00
1b
1e
14
00
00
f2
f6
00
00
00
f3
00
ee
ea
00
00
00
00
00
00
00
00
00
00
0e
f6
00
0d
15
14
12
00
16
00
00
00
09
f9
00
00
f2
f3
f8
00
00
00
00
00
00
00
00
00
fc
00
0c
12
11
11
0f
13
10
00
00
00
00
f2
f3
00
00
f0
00
00
00
00
00
00
00
00
00
ee
e1
e9
00
df
f3
00
0b
0c
00
00
ea
ef
dd
eb
f2
f4
f8
00
00
00
00
00
00
00
00
00
ed
f3
e3
e4
e8
ef
e4
e1
e9
ee
fb
00
f3
e6
f3
f3
00
00
13
00
00
00
00
00
00
00
00
00
00
ed
ec
fd
03
00
00
f7
00
f6
00
00
f9
ec
00
f7
00
fa
00
00
00
00
00
00
00
00
00
00
00
00
00
00
00
00
00
00
00
00
00
00
00
00
00
00
00
00
00
00
00
00
00
00
09
00
00
00
00
00
0c
00
0c
0b
00
00
00
00
00
00
00
0b
00
00
00
00
00
00
09
00
00
00
00
0b
00
09
0b
0a
0a
00
00
00
0d
00
00
0c
00
00
0e
00
0a
0b
00
00
00
00
00
00
0a
00
0a
0c
0b
0b
00
0b
0c
00
00
00
00
00
00
00
00
00
00
00
0d
0d
00
0c
09
0b
00
0a
00
00
00
00
0c
00
09
00
00
00
00
00
00
ef
f0
f2
ef
f7
00
e0
00
1a
0e
00
00
0c
00
0b
0b
00
0a
00
0b
0c
00
f0
f1
f9
00
0a
11
0a
00
ec
00
00
f1
00
08
12
28
1c
15
00
00
0b
00
00
09
00
00
00
f4
f4
f9
f7
00
00
00
00
00
00
f3
ea
00
00
00
00
00
17
18
00
00
0f
0d
00
00
0d
00
00
00
00
00
00
00
00
00
f7
fc
e1
cf
e0
f7
00
00
00
26
2f
27
2c
00
00
00
0c
00
00
00
00
00
00
1f
00
22
17
00
f9
f0
f0
f8
f5
0a
19
00
fb
00
00
43
20
0d
00
00
0e
00
00
07
00
0a
0e
15
18
1e
0a
00
00
f1
00
17
0d
0a
09
f0
ef
00
00
1b
21
19
0c
00
0c
0c
0a
00
1b
00
08
1e
1f
0b
06
00
00
02
00
00
00
01
0a
00
00
f7
00
28
21
12
00
0b
00
09
0c
12
21
00
00
1b
1d
0b
00
0e
00
04
00
0d
10
17
1e
00
00
00
00
1a
14
00
00
00
00
10
0c
1b
00
00
00
00
fc
00
00
00
0e
00
00
00
00
12
24
00
00
f1
00
0d
15
00
00
0c
00
00
00
11
00
ed
00
0c
00
00
f4
11
19
f3
ee
00
00
00
22
0e
00
00
00
06
19
00
0c
00
0a
00
00
0d
ee
00
00
0f
00
00
08
10
14
e8
ea
f0
f2
f1
00
00
00
00
00
eb
00
00
00
00
00
00
0d
00
ed
12
0d
0f
15
06
12
11
09
e4
dc
f4
ee
00
00
00
00
00
00
0d
00
f3
00
00
00
00
0c
00
ef
00
11
25
0d
01
03
00
ef
e3
e8
f6
00
00
13
00
21
13
17
1c
00
e5
00
00
00
00
0c
f4
00
00
0d
00
07
00
00
f5
00
ff
fa
00
00
00
00
00
10
00
00
00
f6
d6
f6
00
0a
0c
0a
00
00
14
00
00
00
00
00
13
14
14
12
14
0c
00
0b
11
00
00
00
00
00
e8
00
0c
09
00
00
00
00
00
00
00
19
00
00
15
00
1b
1a
0a
10
05
00
00
10
00
00
da
ee
f4
0a
00
0c
0b
0c
1b
f2
00
f9
f6
0e
00
e5
f6
1a
12
19
17
07
00
00
00
09
f4
c9
c8
f1
00
00
00
0c
0a
0b
00
00
00
e8
e4
f5
f0
f5
00
12
12
11
17
00
00
ef
00
00
de
d0
cd
eb
00
00
00
00
00
00
00
f4
00
f4
d9
e3
f3
00
13
12
00
00
0c
00
f6
e8
00
00
00
ec
db
eb
00
12
00
00
00
00
00
ef
00
f6
e3
eb
00
15
11
00
00
18
19
09
00
f6
00
ea
f6
00
f2
00
00
00
00
00
0b
00
00
00
00
00
f8
ed
f6
25
00
00
14
1c
06
00
e1
e5
dd
db
e7
e8
e9
00
00
00
00
0c
0c
0d
0c
0d
0f
ee
e6
f2
fb
00
00
12
1b
0a
00
00
d4
cc
d8
f0
e8
00
00
00
00
00
00
0b
0c
00
00
00
00
f5
00
00
25
1b
00
00
14
00
00
00
f5
e4
ea
f1
00
00
00
0d
00
0a
00
0b
00
00
00
00
ea
e7
00
0e
18
00
f4
00
16
00
ef
00
00
00
00
00
00
00
00
0a
00
00
0a
00
00
00
00
0a
0a
00
00
00
00
0a
00
00
0c
09
00
00
0c
0d
00
00
00
00
0c
00
00
0a
0b
00
00
00
00
00
00
00
00
00
00
00
00
00
00
00
00
00
00
00
00
00
00
00
00
00
00
00
00
00
00
00
00
00
00
00
00
00
00
00
00
00
00
00
00
00
00
00
00
00
00
00
00
00
00
00
00
00
00
00
00
00
00
00
00
00
00
00
00
00
00
09
00
00
00
f0
f0
00
00
00
00
00
00
00
00
00
00
00
00
00
00
00
00
00
07
0b
0a
00
0a
0d
fa
00
00
ef
ed
e1
f0
09
0b
00
00
00
00
00
00
00
00
00
00
00
00
00
0d
00
00
00
0f
00
00
0a
10
00
00
f7
e2
0d
00
00
00
00
00
00
00
00
00
00
00
00
00
00
00
f1
ec
fd
00
00
00
00
e8
00
00
00
00
00
00
0f
17
00
00
00
00
00
00
00
ef
f0
00
f7
ec
f4
ee
00
00
00
15
19
0c
03
00
e2
f2
e9
f6
ed
0a
00
00
00
00
00
00
00
00
f1
f0
eb
00
00
00
16
00
f3
00
00
04
09
0e
00
00
f1
e3
00
00
00
00
00
00
00
00
00
f5
f5
00
00
f2
00
00
f9
00
ee
df
ec
04
1b
2e
00
00
00
e0
df
f0
00
00
00
00
00
0a
00
ec
f5
f2
00
00
00
f2
ef
fa
ce
d8
00
13
25
2a
1a
10
00
f1
e6
f2
00
00
00
00
00
00
00
00
00
00
00
00
f8
00
ed
db
e3
e5
11
17
23
21
12
00
00
f4
d4
df
f8
00
00
00
00
00
09
11
00
00
00
02
00
00
f1
ed
f5
0b
16
15
11
26
23
0a
00
e6
dd
f1
00
00
00
00
00
00
09
14
02
f1
00
00
00
e1
f4
f7
0a
16
1e
1a
00
0d
19
17
00
00
f1
00
f0
00
00
00
00
00
0a
0c
00
ef
11
00
f4
f1
00
15
14
1a
10
09
14
13
10
13
1a
00
e4
f3
00
00
00
00
00
00
09
00
00
00
00
eb
f2
f4
00
10
0b
06
10
0c
10
00
00
00
00
ef
e6
00
00
00
00
00
00
00
0d
06
00
eb
00
00
e0
00
04
23
21
13
11
00
00
06
00
f7
00
ed
f1
00
00
00
00
00
00
00
10
0b
00
03
07
00
00
00
0a
17
12
00
00
00
00
00
f5
fb
f5
f4
00
0b
00
00
00
00
00
09
00
00
ee
0a
04
00
00
00
1d
31
07
df
00
00
e8
ec
ed
00
fc
00
00
11
00
00
00
00
00
14
00
00
00
00
00
00
00
00
11
14
00
00
f2
00
00
e8
00
00
1a
00
00
00
00
00
00
00
00
08
00
00
00
00
00
0a
0e
00
00
00
00
00
00
00
f2
00
00
00
14
0d
00
00
00
00
00
00
00
00
00
e4
ef
00
00
00
00
00
00
f4
00
00
00
fc
00
00
00
11
0a
17
00
f1
00
00
00
00
00
16
00
e3
00
12
0e
00
0d
f1
f1
00
f0
f5
f5
00
00
00
f1
0b
1b
19
00
f0
00
00
00
00
00
00
00
00
08
0c
00
00
0f
00
fb
f2
f7
f9
f8
00
00
0b
00
10
18
00
f7
f6
00
00
00
00
00
00
ef
f3
ed
05
00
00
0d
11
00
00
f2
fa
f4
00
00
0a
00
00
0e
00
00
00
00
00
00
00
00
07
0a
00
00
00
f3
f2
ed
00
00
00
00
00
f5
f5
16
00
f2
00
00
00
00
00
00
00
00
00
00
00
00
0a
0e
09
12
0f
06
00
13
03
00
eb
f7
00
00
0d
00
00
f2
f2
f4
00
00
00
00
00
00
00
00
00
10
11
0a
0d
10
0c
00
00
08
00
00
00
0f
00
0a
00
00
00
00
00
00
00
00
00
00
00
00
00
00
00
00
00
00
00
00
00
00
00
00
00
00
00
00
00
00
00
00
00
00
00
00
00
00
00
00
00
00
00
00
00
00
00
00
00
00
00
00
00
00
00
00
00
00
00
00
00
00
00
00
00
00
00
00
00
00
00
00
00
00
00
00
00
00
00
00
00
00
00
00
00
00
00
00
00
00
00
00
00
00
00
00
00
00
00
00
00
00
00
00
00
00
00
00
00
00
00
00
00
00
00
00
00
00
00
00
00
00
00
00
00
00
00
00
00
19
11
00
0d
1d
00
00
00
0f
00
00
10
00
00
00
00
00
00
00
00
00
00
00
00
00
00
00
f7
00
13
0f
00
eb
00
00
00
00
00
00
00
00
00
00
00
00
00
00
00
00
00
00
13
00
0c
0e
00
00
07
18
13
05
00
ef
ec
00
00
fa
00
ee
00
00
0d
00
00
00
00
00
00
00
09
09
14
00
00
00
06
00
00
f1
00
06
0b
0c
00
f7
00
0c
1d
00
00
00
00
00
00
00
00
00
ef
00
0c
f4
e6
00
00
00
f7
f8
02
00
02
0a
0e
00
0e
00
1e
00
fc
00
00
00
00
00
00
00
00
06
06
0e
00
00
00
f9
00
0b
1a
00
ec
00
0e
00
1b
15
00
00
00
13
00
00
00
00
00
00
00
0e
04
00
00
f3
00
00
15
00
00
e6
ea
f2
00
05
13
1a
1e
00
20
00
00
00
00
00
00
00
00
0a
00
0a
10
00
00
0e
00
ee
c7
d5
f2
f6
00
07
00
1a
1e
00
00
00
00
00
00
00
00
f6
0a
00
07
1e
22
10
00
f8
e5
eb
cb
e2
00
10
0a
16
14
21
1e
11
0f
00
00
00
00
00
00
00
13
0a
00
0d
00
00
e2
d2
d1
e6
0e
18
25
25
15
21
22
1b
22
08
00
00
00
00
00
00
00
04
fe
00
00
0f
00
f6
ef
e9
fc
19
27
1f
1f
17
19
0d
1c
1c
00
00
00
00
00
00
00
00
00
00
00
00
00
f8
ec
f5
f4
00
20
21
17
0f
1c
13
11
11
00
0b
00
f2
fd
00
00
00
00
00
00
00
00
e6
ef
e4
e2
00
00
00
16
1c
00
00
12
18
00
00
00
18
00
ed
00
00
00
00
00
00
00
00
00
f6
e9
00
00
00
fe
00
14
00
00
08
00
00
f4
f9
f0
f5
ef
ec
00
00
00
00
00
00
00
00
f1
de
00
00
fe
00
00
00
11
00
00
00
f7
f5
ec
ec
f1
eb
f5
f6
00
00
00
00
00
00
00
04
e3
e4
f8
00
f5
00
00
00
1b
13
00
00
00
eb
f2
00
00
eb
e3
e8
00
00
00
00
00
00
f5
f0
f0
00
00
00
00
00
e7
00
0c
09
00
ec
f0
f0
00
00
00
00
e3
e9
00
00
00
00
00
00
f5
ee
00
f1
00
00
f6
ec
ea
0a
0e
04
00
de
dc
ec
00
00
00
00
e8
ea
00
00
00
00
00
00
f4
f4
f5
00
00
00
00
09
0a
19
0a
00
f0
ec
ef
f3
00
0a
01
00
ee
f4
00
00
00
00
00
00
f9
f5
00
00
00
00
00
00
15
00
0e
11
00
f7
f2
f1
00
00
00
f6
ef
f6
fa
00
00
00
00
00
00
f1
00
00
16
00
00
00
00
00
00
0d
00
f2
f6
e8
f4
06
00
00
00
00
00
00
00
00
00
00
00
00
14
1a
18
10
00
08
00
00
12
19
19
de
cb
dc
f4
00
00
00
00
00
00
00
00
00
00
00
00
10
10
00
12
20
26
00
00
00
09
12
00
00
e5
ef
ec
f0
ef
f7
00
00
00
00
00
00
00
00
00
00
0d
18
18
24
22
12
00
00
15
2a
19
1a
13
11
00
00
00
00
00
00
00
00
00
00
00
00
00
00
00
00
00
00
00
10
00
00
00
00
00
00
00
00
00
00
00
00
00
00
00
00
00
00
00
00
00
00
00
00
00
00
00
00
00
00
00
00
00
00
00
00
00
00
00
00
00
00
00
00
00
00
00
00
00
00
00
00
00
00
00
00
00
00
00
00
00
00
00
00
00
00
00
00
00
00
00
00
00
00
00
00
00
00
00
00
00
00
00
00
00
00
0f
00
00
00
00
00
0a
00
00
00
00
00
00
00
00
00
00
00
00
00
00
00
00
00
0f
00
0b
00
00
00
f2
eb
dd
e8
0b
00
00
00
00
00
00
00
00
00
00
00
00
00
00
00
00
00
00
0c
18
00
00
00
00
00
07
00
00
00
00
00
00
00
00
00
00
00
00
00
00
00
f9
f8
00
00
00
00
00
00
00
e9
e9
fb
00
05
00
00
00
00
00
00
0d
00
00
00
00
00
00
00
00
ef
00
00
00
f1
00
00
ee
ec
00
00
0c
00
00
00
00
07
25
14
00
00
00
00
00
00
00
f7
00
f2
f9
00
00
00
00
00
00
ef
00
ec
fb
15
0c
00
00
08
22
19
00
00
00
00
00
00
00
00
00
17
16
11
09
00
00
00
00
00
f9
eb
ef
00
00
00
00
00
0c
11
0f
00
00
00
00
00
00
00
09
1b
00
11
0f
00
00
ed
dc
f1
f7
f2
00
00
00
00
00
00
04
0f
00
00
00
00
00
00
00
00
0d
15
06
00
11
09
00
00
e4
ea
f1
e7
e7
00
0b
00
ec
00
00
03
00
00
00
00
00
00
00
17
1a
1a
03
12
20
13
17
1b
00
f7
00
ec
ef
00
00
00
07
05
00
00
00
00
00
00
00
00
00
0e
1b
00
06
19
10
00
04
00
00
f8
00
00
00
f5
00
00
03
0d
16
14
00
00
00
00
00
00
0b
00
14
00
05
15
1e
15
05
00
f2
00
00
00
00
00
00
09
02
1e
0b
00
00
00
00
00
00
00
00
00
1e
00
00
0f
00
07
00
ee
00
09
00
00
00
0c
1d
00
0a
14
00
eb
00
00
00
00
00
00
00
fa
00
00
f6
f5
df
e9
e9
ea
00
15
17
00
09
00
0a
00
00
fe
f0
e8
00
00
00
00
00
00
00
f6
00
eb
d3
d9
c2
d0
d5
f0
00
00
00
0c
00
00
00
00
00
e7
00
ea
00
00
00
00
00
00
00
f2
00
ed
d6
ce
c4
da
00
0a
11
00
00
00
00
00
f1
00
f9
f0
00
00
00
00
00
00
00
00
00
f5
f0
e9
d9
d6
d0
ef
0b
15
1b
00
00
f4
f4
00
f8
00
f0
eb
e2
00
00
00
00
00
00
00
00
e3
ed
ea
e4
f1
fc
00
00
18
19
00
00
00
00
00
00
ef
f3
f5
00
00
fa
00
00
00
00
00
00
da
e2
e2
e8
00
0a
00
1a
1c
10
f3
03
00
00
00
00
f0
ef
00
00
00
f9
00
00
00
00
00
00
d9
da
d9
ec
0e
16
00
00
0f
0d
00
07
00
00
00
00
f6
00
0d
00
f9
f9
00
00
00
00
00
00
00
e9
e2
00
14
14
07
00
00
00
00
00
00
00
00
00
f6
00
00
00
00
00
00
00
00
00
00
00
00
f0
fb
00
19
20
15
06
0b
00
00
00
15
00
0a
00
00
00
17
00
00
00
00
00
00
00
00
00
00
ec
00
01
00
00
09
1d
12
00
10
00
18
f7
00
09
15
00
13
10
00
00
00
00
00
00
00
00
00
00
00
f6
df
e1
00
00
e6
00
23
19
0a
08
08
00
00
00
00
00
00
00
00
00
00
00
00
00
00
18
14
00
00
00
fa
fc
00
00
00
f7
00
00
00
f9
00
00
00
00
00
00
00
00
00
00
00
00
00
00
00
00
00
00
00
00
00
00
00
00
00
00
00
00
00
00
00
00
00
00
00
00
0d
00
00
00
00
00
00
00
00
00
00
00
00
00
00
00
00
00
00
00
00
00
00
0e
00
00
00
00
00
00
00
00
00
00
0d
00
00
00
00
00
00
00
00
00
00
00
00
00
00
00
00
00
00
00
00
00
00
00
00
00
00
00
00
00
00
00
00
00
00
00
00
00
00
00
00
00
00
00
0d
00
00
00
00
00
00
00
00
00
00
00
00
00
00
00
f9
00
00
f5
00
00
f8
00
00
00
00
00
00
00
00
00
00
00
00
00
00
00
00
00
00
00
00
00
fa
00
24
00
17
13
f6
00
00
00
12
00
00
00
00
00
00
00
00
00
00
00
00
00
fc
f9
00
00
11
0c
00
05
00
00
f0
ea
00
00
00
f8
f1
f6
fc
00
00
00
00
00
00
00
00
00
01
00
00
10
0b
11
06
09
08
00
f0
00
f6
00
f6
e6
d9
ea
f2
00
00
00
00
00
00
00
00
f3
00
e4
00
00
00
00
00
00
07
00
00
00
00
f9
00
00
00
fa
f6
00
00
00
00
00
00
00
00
00
00
e5
05
00
00
f9
ed
f2
1a
0f
00
f0
e8
00
00
1d
f3
ef
fe
00
00
00
0d
00
00
00
25
15
0b
00
07
00
00
00
f1
00
00
00
00
00
00
00
10
00
e7
e7
f2
00
00
00
00
00
00
00
22
1f
0c
1e
12
0a
00
00
00
00
00
fb
00
00
0a
00
00
00
f6
f9
f4
00
00
00
0e
00
00
00
00
12
13
24
1b
15
00
00
17
00
fb
f5
00
00
02
0d
13
13
16
00
f3
00
00
00
00
00
00
00
1c
15
06
13
1b
00
ec
ef
00
00
eb
ec
00
00
00
18
15
2e
20
22
00
f7
00
00
00
00
00
00
1b
0f
00
00
14
0c
1a
00
00
e5
e0
f5
00
09
fe
08
0b
2e
21
00
f1
00
00
00
0e
00
00
00
1c
00
00
00
0b
15
1e
15
f6
f0
df
e1
0f
0a
11
19
14
16
12
ee
f2
00
00
00
00
00
00
18
1b
00
00
00
12
19
17
ef
00
f0
cc
ca
0a
12
11
1b
00
f2
ec
d7
ec
00
00
00
00
00
00
00
1f
00
00
00
10
0b
00
00
00
ef
da
dc
0f
27
10
01
00
d1
d9
d2
e4
00
00
00
00
0d
00
00
00
00
0a
00
16
0e
14
00
00
f0
e2
ef
24
25
00
fa
fc
dc
dd
de
f5
00
00
00
0d
00
00
00
00
f3
09
00
00
00
00
00
00
ee
e7
e4
11
1d
12
00
f1
ed
f8
dc
00
00
00
00
00
00
00
12
00
f6
00
08
0c
00
0e
00
00
00
e8
00
00
00
14
13
00
f7
fa
ea
00
00
00
00
00
00
11
14
00
00
0c
0e
00
f0
00
00
00
ea
f3
ee
00
19
0c
00
fb
eb
f1
00
00
00
00
00
0e
00
00
19
00
00
00
00
fd
ef
eb
00
06
00
00
00
13
19
00
00
00
00
00
0d
0a
00
00
00
00
00
00
00
00
fa
fd
f3
e5
da
d6
e8
00
09
0d
00
18
00
18
12
00
10
0e
00
15
00
00
00
00
00
00
00
00
00
00
f0
f3
e9
c7
dd
f5
00
12
09
00
17
13
0c
0f
1c
0f
00
0f
00
00
0d
0d
00
00
00
00
00
f4
f5
f3
03
ff
e7
eb
e5
dc
00
00
00
0a
1f
2f
1a
0d
00
00
00
0d
00
00
00
00
00
00
00
00
f0
f0
f6
ee
f4
df
00
f0
e7
00
00
13
18
2c
26
00
00
00
00
0e
00
00
00
00
00
00
00
00
0f
00
0c
00
00
12
00
1c
00
00
00
00
0f
20
1e
00
00
00
00
00
00
00
00
00
0d
00
00
00
0d
00
00
00
00
00
00
0f
00
00
00
0c
00
00
00
00
00
00
00
00
00
00
00
00
00
00
00
00
0d
0e
00
00
00
00
00
00
00
00
00
00
00
00
0e
00
00
00
00
00
0e
00
00
00
00
00
00
00
00
00
00
00
00
10
00
00
00
00
00
00
00
00
00
00
00
00
00
00
00
00
00
00
00
00
00
00
00
11
11
14
00
0c
00
15
00
00
00
00
00
00
00
00
00
00
00
00
00
00
0d
00
00
00
00
00
00
00
18
11
0f
00
f6
f7
00
00
00
ec
00
ed
ee
f8
0e
00
00
00
00
00
00
00
00
00
00
14
00
25
2f
22
f5
00
00
00
f1
00
00
ef
fd
f0
ea
e0
ea
fe
00
0e
00
00
00
00
00
11
00
00
12
1e
10
09
00
00
e6
ed
00
fa
00
00
ea
e1
00
00
00
00
14
11
00
00
00
00
11
00
00
00
18
18
00
ef
00
00
00
00
0b
00
00
f3
ec
ef
14
00
12
00
00
00
0f
00
00
00
0e
13
00
00
10
00
00
e9
00
00
00
00
21
15
00
f6
ea
00
1a
00
00
00
00
00
00
00
00
00
00
17
18
11
12
15
09
00
ea
00
00
11
0c
00
00
ec
f8
00
00
00
02
00
00
09
00
00
00
00
00
00
17
00
00
00
00
0a
00
00
00
00
0c
06
00
00
ef
00
18
19
00
00
0a
00
00
00
00
0d
00
00
15
10
0b
f3
00
0e
00
00
f1
00
00
1f
0f
00
00
ea
18
18
f8
00
00
00
00
00
00
00
00
15
15
18
0f
00
07
00
13
00
ee
00
10
12
13
00
00
14
1a
00
e0
f0
f9
00
00
00
00
0f
00
16
0f
09
00
00
00
00
00
fa
f6
00
11
18
18
10
12
08
00
ef
e5
00
00
00
00
00
00
00
0f
0d
00
ed
ea
ec
00
ed
00
e4
ea
ec
00
19
10
10
00
00
0e
00
00
00
00
00
00
00
00
00
00
0f
00
f3
ee
f0
f8
f5
ee
f0
00
f4
00
00
00
0b
00
d4
f9
00
00
00
00
0e
00
00
00
00
00
00
f8
fc
f9
ed
f4
e7
00
00
01
00
0a
13
00
00
f1
df
dd
f0
f3
00
10
00
00
00
00
00
00
00
f6
fa
e2
c6
dc
00
0e
0a
00
00
00
23
00
e9
e6
fa
dd
f2
f7
00
14
00
00
00
00
00
00
00
fc
f4
d7
ba
cc
0e
10
0b
00
ee
00
00
00
00
eb
00
f4
f8
00
10
16
00
00
00
00
00
00
00
fb
e1
d0
c2
f1
1c
0f
1a
00
f2
00
f4
ed
00
00
00
fd
00
00
00
18
00
00
0e
00
00
00
00
f3
e0
e6
da
00
2b
20
19
14
f1
00
00
00
00
0e
14
f0
00
00
00
00
00
00
00
00
00
00
f9
e9
ea
fb
f3
f7
24
33
3e
00
00
00
06
00
00
00
1e
fc
e4
f0
10
00
00
00
00
00
00
00
fe
e0
d9
e0
fb
00
0c
0a
17
0c
07
0e
02
00
00
19
00
e9
00
13
00
10
00
00
00
00
00
00
00
f3
dc
ea
00
13
00
00
00
08
05
13
00
f0
00
00
00
00
15
13
00
11
00
00
00
0e
00
00
00
fd
e2
db
ef
10
00
00
15
0d
03
0c
00
00
13
0e
00
0d
1c
10
10
00
00
00
00
00
00
00
00
00
f1
d2
d6
e7
f4
ff
00
f6
00
13
00
ec
ff
17
00
09
00
00
00
00
0e
00
00
00
00
00
00
0a
00
fa
fb
f3
eb
e9
00
f4
0f
00
00
0a
0c
00
f9
00
00
00
00
00
00
00
00
00
00
00
00
00
00
00
13
00
00
f9
fd
fa
00
fb
00
00
11
00
00
00
00
0d
00
00
00
00
00
0e
00
00
00
00
00
00
00
00
00
00
00
00
0f
00
00
00
00
00
00
00
0d
00
00
00
00
00
00
00
00
00
00
00
00
00
00
00
00
00
00
00
00
00
00
00
00
00
00
00
00
00
00
00
00
00
00
00
00
00
00
00
00
00
00
00
00
00
00
00
00
00
00
00
00
00
00
00
00
00
00
00
00
00
00
00
00
00
00
00
00
00
00
00
00
00
00
00
00
00
00
00
00
00
00
00
00
00
00
00
00
00
00
00
00
00
00
00
00
00
00
00
00
06
00
00
00
00
00
f0
ed
00
00
00
00
00
00
00
00
00
00
00
00
00
00
00
00
00
03
12
0e
00
10
0c
00
e7
ee
e9
f2
0b
00
1b
00
00
0c
00
00
00
00
00
00
00
00
00
00
07
00
09
1b
07
00
fa
00
db
ed
00
00
10
14
1e
23
18
0d
00
00
00
00
00
00
00
00
17
13
00
0b
20
00
f6
ea
e4
ef
d5
d4
ee
f0
00
00
00
1b
37
0c
00
0a
00
00
00
00
00
00
19
00
0f
1a
00
01
f0
ef
eb
e9
dc
d8
00
00
00
00
00
1c
0d
00
00
00
00
00
00
00
00
00
0e
eb
0e
00
00
00
f1
e4
e9
eb
de
00
00
00
00
00
00
00
00
00
00
00
00
00
00
00
00
00
00
00
fc
00
00
00
00
ee
ea
f3
ec
00
00
00
fd
15
00
00
00
00
00
00
00
00
00
00
00
00
00
f7
00
10
0c
0a
03
00
f4
e9
f1
f2
fd
00
08
01
f2
e7
e7
05
09
00
00
00
00
00
f7
00
00
00
00
0e
0d
11
20
00
d2
c5
d4
fa
00
00
00
d9
ed
e6
ec
00
00
00
00
00
00
00
00
00
00
00
00
00
00
19
2b
21
00
c9
dd
f2
00
0f
00
e3
f2
ef
e3
f3
00
00
00
00
00
00
0c
00
10
0e
00
00
00
00
1e
0d
ea
d5
ed
eb
15
15
09
00
ec
fa
f5
f8
00
00
00
00
00
00
00
00
2c
1b
0a
00
00
00
0e
00
00
00
00
00
1e
00
09
f0
00
00
f3
00
00
00
00
00
00
00
00
00
00
0c
22
17
f4
00
10
00
00
00
00
0b
00
00
e8
e1
ee
00
00
f7
00
00
00
00
00
00
00
00
00
00
0d
00
00
e9
e5
ea
00
09
12
1b
00
00
00
ec
00
00
00
f9
0c
00
00
00
00
00
00
0c
fd
fe
ff
00
f2
e4
eb
d7
00
13
00
1a
10
0e
00
12
15
00
00
00
0f
00
00
00
00
00
13
19
00
00
00
00
f3
e8
dc
f1
1b
12
11
00
00
17
06
00
00
00
00
08
00
00
00
00
00
00
0f
14
0f
00
00
00
f2
d3
da
f6
1f
16
0d
00
0d
1b
00
f3
fb
00
00
09
00
00
00
00
00
00
00
00
00
f3
00
00
de
d9
f3
10
16
00
0e
00
00
22
06
00
00
00
00
00
00
00
00
00
00
00
00
ef
ee
ea
00
00
ef
00
00
01
0d
00
0e
00
11
1e
0d
00
09
15
0f
00
00
00
00
00
00
00
00
f6
f2
00
00
00
00
00
00
00
00
00
05
00
00
ff
19
00
14
00
0a
0d
00
00
00
00
00
00
00
00
00
00
00
00
00
00
f3
00
00
00
0b
12
00
09
00
0a
17
00
00
00
00
00
00
00
00
00
00
00
00
f6
ee
ea
f3
de
e4
e3
00
1b
00
00
00
00
f4
fd
00
00
00
00
00
00
00
00
00
00
00
00
00
00
f0
e9
e0
df
e0
d4
d7
e5
00
00
06
0e
ec
e4
f8
00
00
00
00
00
00
00
00
00
00
00
00
00
f4
f0
ed
ea
eb
ec
dc
dc
ea
e1
ea
eb
f1
ea
ed
00
00
00
00
00
00
00
00
00
00
00
00
00
00
00
00
00
00
00
00
00
00
00
00
00
00
00
00
00
00
00
00
00
00
0a
08
0f
00
0e
00
00
00
00
0b
00
00
0b
0b
09
0d
00
09
00
0c
0d
0a
0b
0f
08
00
0c
08
0e
08
00
09
00
00
0e
09
09
00
00
00
0d
09
00
11
13
0b
09
0b
00
0d
08
0a
0c
0d
0e
0c
0e
08
00
0c
0a
00
00
0d
0c
0b
0b
00
0e
1a
07
0a
11
0e
0f
18
11
12
0c
0d
0e
00
0c
00
0e
00
0c
0e
09
0e
0b
10
12
00
15
00
15
12
12
00
00
00
0e
19
22
00
06
06
0d
14
0a
00
0b
08
00
00
08
00
00
00
00
00
00
00
00
00
f1
e7
e7
fb
17
1a
10
00
00
00
00
0a
0c
0a
09
0d
00
0f
08
0a
00
fb
f6
f4
00
00
eb
00
e2
f6
00
00
00
00
00
f6
00
eb
ed
00
0d
00
00
0a
00
0c
0d
00
00
00
00
00
0b
00
00
00
08
00
00
00
12
00
00
f2
00
00
10
1a
08
0e
00
00
0b
0c
00
f6
fd
00
1c
16
1a
12
0f
16
17
15
0e
10
19
1a
17
00
00
00
00
13
0f
0c
00
00
00
00
ed
f4
00
0f
19
15
11
00
12
11
12
0d
0b
00
1d
1b
0e
00
f6
00
12
13
00
08
09
0b
09
00
00
e8
00
0f
10
00
f7
00
19
00
09
ed
eb
ec
f9
f9
f6
e9
e8
f3
17
14
0b
00
00
00
00
00
00
00
00
00
f5
f6
fd
00
12
0a
00
f2
f1
e4
e8
e6
ed
f1
d3
df
00
00
0c
00
0d
00
0a
00
00
00
19
00
e6
e9
00
00
19
00
00
00
00
f6
ed
e5
dc
e5
f8
e5
eb
00
00
08
0a
00
00
00
12
14
00
00
e4
f6
0d
10
17
08
08
17
0e
00
00
f9
eb
00
0d
00
ea
00
09
0c
0b
00
0a
00
00
00
00
00
ef
00
00
00
00
00
08
0e
10
00
00
00
00
05
03
00
00
00
00
09
0f
0c
08
00
00
f9
00
00
00
00
00
00
00
f1
05
11
17
15
18
00
12
00
0a
00
00
0b
0c
0b
0e
0c
00
00
00
00
00
00
00
f5
f8
e8
eb
00
00
13
1d
27
1c
0d
1c
17
0b
00
00
0c
00
00
0b
0a
00
00
00
1b
00
00
00
f0
e9
ee
00
00
00
02
00
1d
12
08
00
00
13
0e
0c
07
00
0b
00
0b
00
13
26
20
14
00
13
fc
00
f1
e6
ef
e6
fc
00
18
07
14
11
00
00
f4
0d
00
0d
00
00
0b
00
16
22
26
19
10
15
1f
1e
0c
f6
00
00
00
17
14
00
0d
13
00
00
00
0f
13
09
0d
00
0a
00
00
00
12
00
00
00
20
27
2d
2a
00
f0
00
00
14
03
00
00
00
02
00
1c
10
0d
0c
0b
09
00
00
00
00
00
ee
f7
15
0f
1e
00
00
00
00
1d
1f
00
00
ee
00
05
00
0f
0a
00
0c
0b
00
00
00
00
00
ee
00
f2
00
00
00
00
fb
00
00
24
00
09
00
fc
f9
ed
00
00
0b
00
08
0e
00
08
00
0c
00
e6
f2
f7
ef
ee
f0
00
f8
00
1c
22
13
13
ee
e9
e4
e2
00
0a
13
0f
00
0a
0b
00
0f
17
0d
00
00
e7
ee
f9
f4
ef
e6
00
00
16
1a
00
e4
de
ec
00
0c
19
10
0b
0b
0d
0a
0b
0d
0f
18
00
00
00
e8
f0
00
00
00
00
15
14
2f
0e
00
00
00
0b
09
0c
00
09
0d
0d
00
0c
0e
0a
0c
08
0a
06
00
00
00
1c
00
00
00
00
04
0b
22
22
19
0f
0e
0e
0c
00
0d
00
0c
00
00
0e
0b
0a
0e
12
0c
0e
14
18
1d
1b
17
16
07
05
13
0e
0e
0f
08
0c
0b
0a
0c
00
0d
08
08
00
09
0a
08
00
09
0c
0a
0b
0a
00
00
06
0c
0e
00
00
00
0e
00
00
0d
00
0e
00
00
00
00
00
02
00
00
ff
02
03
01
00
02
00
00
00
00
03
ff
00
00
00
03
00
00
ff
03
00
01
01
00
00
00
00
00
00
00
00
00
00
01
00
00
00
02
02
00
00
ff
00
00
01
03
ff
00
00
ff
00
00
02
00
00
00
00
00
00
01
00
00
00
00
00
00
ff
00
02
02
00
00
02
02
03
02
01
fe
02
01
00
00
03
00
00
00
00
03
00
00
00
00
00
f9
00
00
00
00
00
00
01
02
02
00
00
00
00
00
00
01
00
00
00
00
00
00
00
00
00
00
f7
00
00
f6
00
ff
02
00
00
01
00
00
03
00
00
00
00
00
00
00
00
00
00
00
00
e2
e3
f0
e4
00
00
00
00
00
00
00
01
00
01
00
02
00
01
00
00
00
01
13
10
0c
02
02
0f
16
00
fb
ea
e0
00
00
00
00
01
fe
00
00
01
00
00
00
00
00
fb
00
00
01
15
17
00
0b
0f
1f
00
00
fc
00
00
00
00
00
00
00
00
02
00
00
00
02
00
07
05
00
00
00
00
00
0c
00
00
00
00
00
00
00
00
00
00
00
00
00
00
00
00
00
00
00
01
14
2a
00
00
00
00
04
01
00
00
00
00
00
00
fc
00
00
00
00
00
00
00
ff
00
03
00
00
00
1c
35
00
00
f9
00
04
00
f5
ea
00
00
00
10
00
00
00
00
00
00
00
ff
00
00
ff
ff
00
00
16
34
00
00
f5
f5
f5
00
e9
eb
00
00
00
00
fb
00
00
00
00
00
00
01
03
00
00
01
fd
fc
1f
36
00
00
00
e7
00
00
00
00
00
00
00
fb
f0
00
09
0a
00
00
00
00
03
00
00
00
00
fd
15
21
00
06
00
e6
ee
00
00
fb
00
00
00
00
e8
00
00
00
00
00
00
00
00
03
01
02
00
fd
0b
16
00
15
11
00
00
00
00
00
00
00
00
00
f0
f7
00
00
00
00
00
00
00
01
03
02
00
00
11
00
f0
00
17
00
15
00
0e
00
00
00
00
00
00
f7
00
00
00
00
00
00
02
00
00
02
00
00
13
00
00
f3
00
00
00
00
00
00
0f
00
00
00
11
00
00
00
00
00
00
fe
00
00
ff
00
00
00
08
00
00
00
00
00
fd
00
00
00
00
00
00
00
00
0c
00
00
00
f9
00
00
02
ff
fe
00
00
01
04
00
00
00
00
00
00
00
00
00
00
e8
00
03
00
00
00
00
00
00
00
00
00
00
00
00
00
00
00
00
00
00
00
00
00
00
08
ff
00
00
00
00
00
00
00
00
00
00
fa
00
00
00
00
00
03
00
00
00
00
00
00
00
fd
00
fe
00
00
00
00
00
00
00
00
00
0f
00
00
00
00
03
00
01
00
00
00
00
01
fb
00
00
00
00
00
00
e3
00
00
ef
f2
00
00
16
14
00
00
00
02
00
00
00
02
01
01
00
00
00
00
00
00
00
00
e2
ec
eb
e9
00
ef
00
00
1d
14
20
00
00
00
00
01
00
00
00
00
00
00
00
00
00
00
00
00
00
ed
00
ed
00
ed
f1
00
25
1f
25
00
00
00
00
fe
ff
00
02
02
01
00
00
00
00
00
fe
00
ef
00
00
00
ec
00
00
20
2b
1e
13
06
00
00
ff
00
ff
ff
ff
00
fd
00
fa
00
00
00
02
00
00
00
00
00
00
00
00
22
2d
21
0d
00
00
fe
00
01
00
00
00
00
fb
f6
00
00
00
ff
02
01
ff
00
00
00
00
00
ef
00
00
18
0d
fe
02
ff
00
00
00
02
00
00
00
00
00
00
01
00
00
00
ff
ff
01
02
00
02
00
00
00
00
00
00
00
00
00
02
00
00
00
00
00
00
00
00
00
00
00
00
00
00
00
00
00
00
00
00
00
00
00
00
00
00
00
00
00
00
00
00
00
00
00
00
00
00
00
00
00
00
00
00
00
00
00
00
00
00
00
00
00
00
00
00
00
00
00
00
00
00
00
00
00
00
00
00
00
00
06
00
00
00
00
00
00
00
00
00
00
00
00
00
00
00
00
00
00
00
00
04
0f
09
07
11
12
fd
fb
1a
13
16
15
00
00
f8
f4
00
00
00
00
00
00
00
00
00
00
0e
0a
0e
1a
1b
22
0f
03
00
17
28
2c
1d
00
00
f3
ea
e6
f3
00
00
00
00
00
00
00
00
00
00
00
0f
00
f4
00
10
14
17
1a
19
23
00
f5
00
00
f0
e4
db
e4
00
00
00
00
00
00
00
00
ed
00
00
00
00
12
1c
00
00
00
00
00
ea
00
fa
f1
e6
e4
dc
ef
00
00
00
00
00
00
00
0f
1c
14
00
18
11
11
0c
00
00
00
f3
f1
da
eb
f0
e8
00
00
cf
ef
00
00
00
00
00
00
00
18
1a
1a
00
12
00
00
e8
00
06
f4
e7
f3
ea
ed
00
00
00
00
e2
f4
00
00
00
00
00
00
00
00
28
16
00
00
ee
ec
e5
f1
e2
f2
f3
00
00
00
00
00
00
00
00
00
07
00
00
00
00
f0
00
0a
15
11
00
00
e7
ee
de
de
e4
00
f6
00
00
05
00
00
00
00
14
0b
00
00
00
00
00
f2
00
07
00
00
ea
e8
ee
f0
eb
f0
00
00
13
08
07
07
0d
00
00
f4
0c
1d
06
00
00
00
00
00
00
00
f6
ee
00
e3
f3
f6
fc
e1
ef
0d
15
18
10
00
00
00
f4
ea
00
1f
00
00
00
00
00
00
06
ed
f2
00
00
00
00
f5
f3
f7
fe
00
00
16
00
00
00
0e
f4
00
1a
1f
00
00
00
00
00
00
00
f0
00
08
0d
00
f3
f7
00
fd
13
00
00
00
00
00
f4
00
00
00
f9
f8
00
f5
00
00
00
00
00
00
00
00
00
0d
00
f6
00
00
0e
0a
00
00
00
fd
00
00
fd
00
00
08
00
00
00
00
00
00
00
00
00
0a
04
08
0b
00
00
f5
00
00
f2
00
00
12
00
00
00
00
00
00
00
f4
00
00
00
00
07
01
04
00
00
1d
0b
00
ef
ed
00
e3
ee
f7
00
00
18
1b
00
f7
f7
df
f5
00
00
00
00
00
0a
00
14
00
f8
00
00
00
0a
00
00
00
e5
00
00
ee
11
15
00
00
00
ea
00
00
00
00
00
00
0b
0d
1f
00
f9
00
00
10
00
0d
19
00
e3
00
00
00
00
00
00
0a
00
00
00
00
00
00
00
00
00
08
0f
00
00
00
0f
0b
00
0b
26
11
00
05
07
11
00
04
05
03
f2
f5
00
00
00
00
00
00
00
00
f3
00
00
00
09
00
00
0a
23
22
14
16
26
26
00
00
00
0a
f5
f7
00
00
00
00
00
00
00
00
00
f7
f1
00
f1
f6
00
00
16
23
21
22
21
0c
00
00
00
00
00
f3
00
00
00
00
00
00
09
00
00
00
00
07
00
00
00
f3
00
15
14
00
14
06
00
11
04
07
00
f5
00
00
00
00
00
00
00
00
00
00
0d
08
0c
eb
e0
ec
0e
23
12
00
00
10
00
00
ec
00
00
00
00
00
00
00
00
00
00
00
00
06
00
08
0e
19
00
00
0e
f0
eb
00
00
00
13
00
00
00
00
00
00
00
00
00
00
00
00
00
00
00
00
00
00
00
0b
00
f9
f3
f0
00
f3
00
f5
00
00
00
00
00
00
00
00
00
00
00
00
00
00
00
00
00
00
f4
00
00
00
00
00
00
00
00
00
00
00
00
00
00
00
00
00
00
00
00
00
00
00
00
00
00
00
00
00
00
00
00
00
00
00
00
00
00
00
00
00
00
00
00
00
00
00
00
00
00
00
00
00
00
00
00
00
00
00
00
00
00
00
00
00
00
00
00
00
00
00
00
00
00
00
00
00
00
00
00
00
00
00
00
00
00
00
00
00
00
00
00
00
00
00
00
00
00
00
00
00
00
00
00
00
00
00
00
00
00
00
00
00
00
00
00
00
00
00
00
00
00
00
00
00
00
00
00
00
00
00
00
00
00
00
00
00
00
00
00
00
00
00
00
00
00
00
00
00
00
00
00
00
00
00
00
00
00
00
00
00
00
00
00
00
00
00
00
00
00
00
00
00
00
00
00
00
00
00
00
00
00
00
00
00
00
00
00
00
00
00
00
00
00
00
00
00
00
00
00
00
00
00
00
00
00
00
00
00
00
00
00
00
00
00
00
00
00
00
00
00
00
00
00
00
00
00
00
00
00
00
00
00
00
00
00
00
00
00
00
00
00
00
00
00
00
00
00
00
00
00
00
00
00
00
00
00
00
00
00
00
00
00
00
00
00
00
00
00
00
00
00
00
00
00
00
00
00
00
00
00
00
00
00
00
00
00
00
00
00
00
00
00
00
00
00
00
00
00
00
00
00
00
00
00
00
00
00
00
00
00
00
00
00
00
00
00
00
00
00
00
00
00
00
00
00
00
00
00
00
00
00
00
00
00
00
00
00
00
00
00
00
00
00
00
00
00
00
00
00
00
00
00
00
00
00
00
00
00
00
00
00
00
00
00
00
00
00
00
00
00
00
00
00
00
00
00
00
00
00
00
00
00
00
00
00
00
00
00
00
00
00
00
00
00
00
00
00
00
00
00
00
00
00
00
00
00
00
00
00
00
00
00
00
00
00
00
00
00
00
00
00
00
00
00
00
00
00
00
00
00
00
00
00
00
00
00
00
00
00
00
00
00
00
00
00
00
00
00
00
00
00
00
00
00
00
00
00
00
00
00
00
00
00
00
00
00
00
00
00
00
00
00
00
00
00
00
00
00
00
00
00
00
00
00
00
00
00
00
00
00
00
00
00
00
00
00
00
00
00
00
00
00
00
00
00
00
00
00
00
00
00
00
00
00
00
00
00
00
00
00
00
00
00
00
00
00
00
00
00
00
00
00
00
00
00
00
00
00
00
00
00
00
00
00
00
00
00
00
00
00
00
00
00
00
00
00
00
00
00
00
00
00
00
00
00
00
00
00
00
00
00
00
00
00
00
00
00
00
00
00
00
00
00
00
00
00
00
00
00
00
00
00
00
00
00
00
00
00
00
00
00
00
00
00
00
00
00
00
00
00
00
00
00
00
00
00
00
00
00
00
00
00
00
00
00
00
00
00
00
00
00
00
00
00
00
00
00
00
00
00
00
00
00
00
00
00
00
00
00
00
00
00
00
00
00
00
00
00
00
00
00
00
00
00
00
00
00
00
00
00
00
00
00
00
00
00
00
00
00
00
00
00
00
00
00
00
00
00
00
00
00
00
00
00
00
00
00
00
00
00
00
00
00
00
00
00
00
00
00
00
00
00
00
00
00
00
00
00
00
00
00
00
00
00
00
00
00
00
00
00
00
00
00
00
00
00
00
00
00
00
00
00
00
00
00
00
00
00
00
00
00
00
00
00
00
00
00
00
00
00
00
00
00
00
00
00
00
00
00
00
00
00
00
00
00
00
00
00
00
00
00
00
00
00
00
00
00
00
00
00
00
00
00
00
00
00
00
00
00
00
00
00
00
00
00
00
00
00
00
00
00
00
00
00
00
00
00
00
00
00
00
00
00
00
00
00
00
00
00
00
00
00
00
00
00
00
00
00
00
00
00
00
00
00
00
00
00
00
00
00
00
00
00
00
00
00
00
00
00
00
00
00
00
00
00
00
00
00
00
f4
00
00
00
00
00
00
00
00
00
00
00
00
00
00
00
00
00
00
00
00
00
f6
ef
ee
00
00
f4
00
18
12
00
09
12
12
00
00
00
00
00
00
00
00
00
00
00
00
00
00
00
00
00
00
13
0b
00
00
e4
e4
0b
17
13
28
0e
00
00
e0
00
00
00
00
00
00
00
00
00
0c
18
17
00
00
0b
e2
e2
e3
e4
de
da
03
2a
1e
17
00
00
0b
00
f6
00
00
00
00
00
00
00
00
00
00
00
12
00
e1
e6
f8
f3
e5
f9
20
2a
15
19
00
e4
f8
f6
00
00
00
00
00
00
00
00
11
00
00
ef
00
f1
00
00
f2
e0
d2
00
2b
20
14
09
00
f4
00
e6
f7
00
00
00
00
00
00
00
0e
00
f1
ea
00
00
00
00
d4
c8
d3
14
2e
16
15
00
f0
00
ea
df
f8
00
00
00
00
00
00
00
00
eb
e8
03
0c
00
06
00
ec
bf
da
29
30
21
04
e6
e6
00
e7
ea
00
00
00
00
00
00
00
00
eb
df
ea
07
08
07
07
f6
ce
cc
00
1f
36
16
fe
d6
e2
ec
eb
f7
00
00
00
00
00
00
ee
ea
00
00
00
05
0c
15
00
ed
d6
e0
00
20
1e
1b
00
e2
ed
e8
e0
ee
00
00
00
00
00
00
f0
ef
04
09
00
e9
00
1c
16
00
f3
00
00
12
1f
0a
00
ea
00
f2
f8
00
00
00
00
00
00
00
00
13
0f
02
fd
00
00
00
00
f0
00
11
00
00
2b
0d
00
dc
00
0f
11
00
00
00
00
00
00
00
00
19
1e
03
02
00
00
00
f0
ed
