2d
26
bb
11
0a
27
af
00
00
08
20
ef
a9
da
00
00
ca
2b
d5
00
10
c8
26
00
00
da
26
00
26
ec
e8
17
da
e1
c9
e0
c4
00
e6
23
ea
e2
00
d0
15
15
d7
2b
00
d7
00
00
bf
27
d7
1c
c6
25
c0
16
c4
cd
aa
00
19
cc
14
a0
96
00
00
00
00
00
00
1f
00
1a
1b
00
db
00
46
e3
1d
00
29
00
f2
db
b2
c4
db
ab
15
d9
0d
17
ae
ee
00
1c
38
00
cc
e0
19
00
fb
c4
ed
1b
00
c1
0d
35
00
e7
db
00
00
f8
c9
cd
14
20
12
d8
00
1c
f2
21
ac
e8
12
23
00
10
00
2e
f7
f4
e8
a6
00
cc
df
c5
00
00
1f
00
11
00
27
27
00
00
c2
00
12
00
23
08
00
ec
11
d4
00
18
1c
00
de
d6
c2
2e
bd
da
cf
bd
ea
f7
41
c3
b8
2c
e0
28
db
25
13
00
1b
ec
c6
00
25
15
29
16
13
00
00
e1
21
21
cb
00
d9
db
e4
0f
e4
33
81
00
ef
bf
10
00
e4
18
00
1d
1b
d7
1c
0b
00
1b
0d
15
de
00
1c
00
e6
c9
12
bd
be
dd
d8
ce
c0
00
00
e4
13
e5
2b
db
c8
c9
1d
15
d6
00
23
af
0f
07
dc
16
ba
00
00
00
12
00
0b
00
f0
25
10
17
f1
d2
24
ca
00
1a
e7
00
bb
b0
00
1b
e7
12
21
c6
1e
00
d4
b8
bf
27
a8
d0
24
00
d0
c7
00
10
11
27
00
cb
ec
15
00
00
d9
0e
e8
23
00
28
fa
d0
00
1c
d3
d8
10
c7
1f
00
1b
00
13
e8
b8
00
00
d6
18
16
f1
e3
c7
ce
ea
ec
c7
c8
19
0c
00
00
e7
9b
17
1d
18
be
1a
00
32
f0
1a
3d
be
2e
32
db
00
00
00
0a
e8
00
1d
26
e3
1e
e8
e5
28
00
00
13
dc
30
d6
da
14
e2
b2
dc
00
00
19
29
d1
1f
f2
00
00
00
10
19
1d
da
cc
f3
00
0d
f1
1c
00
00
bd
15
17
c7
dd
f2
c4
00
14
c4
25
ba
d1
1b
20
0f
00
12
2f
d7
2a
0b
21
eb
d2
00
e9
dc
cd
17
1b
cd
a7
12
00
c4
ea
00
32
37
2d
00
b1
00
d5
00
e8
11
21
d5
0d
e8
db
b9
24
00
12
13
00
00
00
10
00
00
0e
b9
10
00
e4
c4
36
e3
e9
0a
1d
1d
e2
10
db
00
c4
00
cb
00
ca
37
d6
12
30
00
0e
12
09
c8
16
d4
0c
00
00
d4
0a
11
b2
cb
00
13
13
e6
1b
be
14
e0
00
de
b4
00
d4
17
ac
07
e0
17
17
c5
12
1b
20
2c
33
d4
10
28
cc
c3
ae
15
de
ef
16
14
00
fa
aa
00
00
00
2e
00
24
e5
27
00
e5
d5
c5
00
d8
d3
00
f1
00
dd
df
ee
14
31
00
00
d2
18
df
f3
b6
dd
00
de
1f
24
00
0b
0e
0d
d5
ec
00
1c
f1
00
1d
0a
00
00
00
13
ac
1f
0e
df
00
de
00
0f
d3
12
ee
bb
23
00
1c
cc
00
00
00
ce
0e
17
ae
25
00
e1
2e
15
17
00
00
a6
