00
e4
46
0c
23
00
dd
00
f0
e4
00
ab
f7
ee
00
22
e6
00
00
00
00
eb
00
1f
00
ed
00
1f
00
00
00
1d
00
00
ef
00
18
00
1c
00
00
00
31
e4
23
d8
f1
0d
00
00
fd
14
c2
ce
18
df
ee
31
00
00
19
20
28
00
00
e2
00
d3
00
db
d4
21
00
f7
00
19
25
00
00
f9
32
00
d6
00
04
00
2f
00
f8
00
f3
f6
1f
00
00
1d
00
00
f5
f6
00
00
00
ef
00
e1
00
00
00
f1
00
f2
11
00
00
00
00
0c
f8
12
cb
df
00
17
00
00
00
ee
04
07
00
02
b8
aa
00
f5
00
00
00
eb
f9
00
2b
1d
b3
2d
33
f5
eb
a1
f2
19
00
29
00
1b
27
00
00
18
1f
f7
ef
00
27
00
f1
00
00
00
f0
00
00
cb
21
00
00
21
ef
fe
00
00
e6
28
00
cf
1e
00
cb
00
21
fa
d7
0a
00
ce
21
16
00
00
28
12
ce
0d
d6
00
1d
e9
42
0f
00
16
00
22
3e
26
00
00
1a
18
1c
1b
d0
e3
ba
de
0f
00
00
e1
00
1b
00
dc
00
f3
00
16
13
00
f7
4c
1b
13
00
00
ea
e8
e8
f8
0e
1f
e5
ce
ce
00
00
f8
dc
00
ef
1a
f8
f1
26
00
e3
1d
00
1c
fa
36
2a
cc
8d
00
08
00
1c
ad
df
e4
e1
00
15
17
f5
00
00
00
00
1e
00
12
f1
00
00
00
2d
00
f0
00
00
d1
00
e1
00
d6
00
00
00
00
00
18
08
ef
0c
00
d7
0f
00
1d
e2
28
00
09
32
db
00
00
22
12
00
00
00
00
00
e3
e8
00
eb
00
e7
00
00
f8
12
0e
d9
e2
19
1b
1f
00
00
01
30
21
f4
09
00
00
1e
1a
00
14
1c
00
f0
93
e9
00
00
e1
24
25
00
dd
03
e0
26
1e
e9
14
cc
27
af
f8
15
eb
fc
00
00
db
4c
1c
00
00
2d
00
29
9f
d2
00
1f
3c
f5
af
d3
c4
00
0f
0d
da
ea
0a
00
dd
00
00
f0
db
11
00
e2
00
dd
00
15
07
00
1a
00
00
0e
00
e2
00
1d
1e
16
00
e2
00
2c
3f
22
eb
04
00
1e
00
00
00
1b
16
22
ee
00
fb
e7
2c
10
f6
e0
32
00
26
00
e7
00
00
f0
0d
1b
f9
c4
dc
08
1b
e8
14
4a
00
1c
2b
25
00
11
f4
c8
ed
00
00
ed
10
7b
14
00
00
00
00
00
00
00
1e
00
35
20
00
1f
00
00
05
df
ee
e6
00
f2
00
00
00
00
00
14
de
e2
f3
0e
ad
00
0d
00
bf
00
46
b7
3e
19
ff
1b
d6
00
00
00
00
00
00
ce
38
eb
f6
1f
00
eb
00
00
00
f8
13
29
26
00
00
00
e4
fb
00
00
00
23
00
e2
00
c6
00
db
00
2b
00
c3
00
24
49
23
00
00
18
00
f7
e4
58
43
10
d6
1f
de
00
35
e0
e7
ed
ec
1a
00
e2
cd
00
cb
d2
1a
00
00
c5
00
31
0d
b7
03
0f
f9
00
10
ed
f1
00
00
12
34
0d
1b
0f
f2
a5
ef
00
e3
e9
38
f7
00
16
4e
00
00
00
db
f1
ce
da
1c
00
e3
00
ea
15
00
15
e4
e3
00
00
00
1a
00
e2
12
00
1c
1f
17
1c
e7
de
db
12
00
da
00
d5
e5
00
1c
16
24
e8
ef
00
33
18
eb
00
e1
e9
00
ea
e3
1c
15
0d
00
00
21
00
ed
1f
00
19
fa
00
00
29
19
ed
00
20
2f
10
14
00
2b
00
00
00
0c
ee
36
0c
00
0a
00
e5
08
1c
00
00
de
dd
b2
e9
c6
cf
00
00
00
00
19
00
f5
0f
00
00
19
00
e7
00
18
00
15
0f
c8
c8
e0
1e
d3
16
32
eb
ea
0e
21
15
00
00
00
00
00
1a
1c
2c
eb
19
ea
00
27
49
23
d2
de
1e
1b
f7
4e
0b
00
00
ef
09
29
00
00
00
cc
00
d0
e5
18
00
1f
00
0e
00
00
36
00
0b
d8
e9
17
ea
00
e6
2f
16
e0
00
00
00
e9
e2
5f
00
eb
11
f7
e8
15
08
17
cb
c7
12
10
3f
00
00
e6
e5
00
11
19
dc
ef
00
00
00
0b
1a
c8
cd
00
ce
f9
00
17
00
f6
00
ee
00
26
18
00
26
1d
e6
e8
11
00
ec
31
00
00
17
da
ec
d1
cd
00
23
00
00
3c
00
00
00
ed
0f
14
21
f1
00
00
00
00
00
00
cf
00
15
26
1c
e5
00
e1
00
16
10
00
f5
16
c5
00
08
00
41
00
00
1c
25
23
15
16
00
00
18
00
00
25
1b
16
00
2a
ef
00
00
2b
d9
21
1c
00
00
0d
00
e1
0e
f8
f3
00
00
17
15
00
1e
22
00
00
e3
00
00
00
00
e6
00
17
e3
d4
00
23
00
0f
00
1a
00
00
00
e4
0a
00
eb
15
16
1a
26
c2
0e
ea
00
e9
eb
ef
12
30
00
1e
0e
d7
11
e9
08
1a
ee
d2
00
00
cd
eb
18
f4
18
46
11
ce
d5
db
00
ec
1e
00
10
12
00
19
fa
00
00
08
02
19
e9
00
00
18
30
00
12
00
23
1c
00
0d
24
ee
ee
20
e8
00
ee
10
bf
f2
1e
00
1c
00
0c
ec
25
f2
e6
00
62
00
00
01
2b
25
f0
2d
cf
00
e4
1c
f3
00
2b
00
00
ef
e7
00
00
00
43
00
ea
dc
28
eb
28
d4
00
00
00
f0
35
00
1d
18
26
00
ca
17
21
eb
cd
0b
00
23
ef
00
f2
19
00
00
e8
31
00
f5
ef
00
28
00
df
24
00
11
00
00
37
e4
1c
f7
00
1c
00
fa
1e
16
00
ef
17
00
00
22
00
e1
fc
00
f0
00
ef
00
13
00
e1
00
08
00
de
00
00
16
00
e8
ec
00
f3
ef
1c
07
e5
00
1a
e3
00
f5
00
ec
00
d8
00
ef
10
db
00
0a
03
00
0a
16
00
df
00
e0
00
00
00
00
00
00
00
00
10
00
f3
08
16
db
00
00
f9
00
00
1c
e6
00
2c
14
13
21
fe
0f
00
0a
11
db
ed
30
ed
00
00
00
eb
0f
00
00
02
ca
d4
00
db
03
00
00
e5
00
dc
00
00
00
00
17
00
0b
f5
00
fa
e4
e0
14
f8
14
00
f5
00
00
e0
00
00
0d
e1
00
00
00
00
00
00
15
11
00
00
11
00
00
00
d5
32
ea
2d
18
ef
07
20
12
2f
00
00
f1
e8
37
12
00
e8
00
e4
00
0d
15
00
13
00
e0
00
0c
00
17
3e
21
00
e4
42
00
00
1f
eb
00
ca
42
00
e9
17
e0
11
eb
ee
1d
0f
2d
1b
00
00
f4
00
d3
2c
00
df
df
00
00
00
e2
00
25
37
d7
e9
00
00
d5
e5
eb
7f
00
00
d9
fa
00
11
00
00
1c
e2
f4
0b
00
09
10
ee
3a
00
00
ee
3c
00
00
00
00
00
f1
00
00
00
ea
00
00
e8
09
00
3c
00
ef
e6
00
f1
fb
26
d3
00
00
f5
f6
00
f0
34
1a
c7
bf
b4
18
23
ed
1d
cb
00
18
1c
f4
d4
00
d4
ec
da
00
21
00
00
e4
00
29
12
00
f1
00
00
d7
eb
00
00
0b
22
10
15
00
e8
00
00
00
00
1e
00
d6
20
00
00
1b
00
00
c2
1d
1c
1f
00
00
ec
f7
1f
23
1d
ed
24
dc
16
2b
f2
0b
00
2e
00
1a
00
e3
ca
00
00
27
20
eb
04
e3
23
00
00
15
ec
00
26
00
e2
00
46
16
1c
d4
00
00
00
00
e0
0c
de
10
f4
22
26
00
00
00
0d
09
21
e8
00
00
f2
00
00
e8
1c
d4
de
18
f5
00
10
12
24
00
37
23
e3
18
e3
00
0f
00
00
e8
e4
0c
e8
e1
20
eb
00
00
ec
26
13
1b
22
00
13
dd
25
00
00
00
dc
e5
fe
00
ee
00
00
ca
00
0b
0c
00
00
00
1a
ef
11
30
c6
ce
ed
00
00
13
0a
e5
00
e8
12
1d
14
cc
00
ee
00
11
2a
d4
18
f6
00
14
f7
34
00
d7
00
da
00
f4
1c
00
08
45
00
00
f1
dd
00
d2
f7
00
10
00
00
ef
eb
17
ef
00
00
00
12
df
00
37
14
2c
00
00
00
00
00
00
00
eb
00
00
e0
00
ca
14
38
00
00
00
00
00
24
2b
21
df
00
f0
08
00
1d
00
00
da
dd
00
00
0f
00
00
ef
00
00
00
14
ee
19
de
00
ff
ee
00
00
ed
00
e2
1c
13
11
00
00
10
ed
e1
14
11
d8
00
0c
d7
0a
11
0e
1d
00
00
18
e5
00
00
00
00
d0
e2
00
2a
2c
00
00
2c
d3
00
0c
00
04
0d
00
00
00
00
ea
00
24
f1
00
00
20
00
0f
ce
e3
d8
36
e9
00
e5
00
dd
e3
17
fa
e4
00
00
e8
3a
00
de
00
f2
00
13
1b
00
f3
00
00
00
00
00
00
20
1d
13
00
f1
ec
e5
1b
dc
cd
00
c5
00
00
f9
26
ce
0c
00
0e
00
44
15
df
00
13
18
00
00
cf
23
00
1c
e2
00
14
00
00
f3
fe
dc
17
00
32
e2
f4
3b
f8
00
00
00
13
e8
11
e8
bb
00
e9
14
00
1b
ca
00
26
16
1c
dc
c9
00
00
00
ef
1a
00
00
00
00
34
0d
cf
00
19
00
00
da
cd
00
0f
ef
2d
00
00
0f
00
e1
3a
ef
0e
20
b2
c1
d5
44
e5
20
00
00
f7
00
1c
e4
e6
39
01
b3
32
00
00
1a
1c
00
00
00
d6
e3
19
00
1a
00
d1
36
00
d4
ee
00
1f
1e
00
e8
00
00
00
00
0f
ca
00
00
00
00
ef
00
00
f6
00
00
00
00
f9
11
00
00
00
00
dc
00
ee
0e
e1
00
33
01
1e
11
00
0c
14
00
e9
12
e0
d3
00
00
00
00
e8
00
00
c5
bc
00
30
00
1f
00
1a
dc
fe
f1
00
fc
f5
2b
1f
f6
e1
e6
d9
14
00
18
00
de
f3
12
00
e2
94
00
23
13
00
00
00
e9
ea
00
d5
00
00
00
e4
1c
2f
00
d7
21
ef
00
2b
00
00
d9
51
ca
e9
00
0f
21
10
1f
db
00
00
24
22
fd
de
00
ef
db
00
0e
40
e3
10
14
2d
00
00
0f
ca
eb
00
e4
1c
00
14
dc
e4
32
08
1d
00
d3
00
f4
12
00
d4
ff
00
ef
f0
1f
00
bd
50
e9
00
00
00
2b
14
23
00
25
27
00
0f
ec
f8
00
13
00
00
2c
de
00
2c
1b
3a
14
30
00
00
00
de
00
00
21
22
31
00
00
d7
00
00
00
ed
33
fb
33
00
00
1e
00
16
e2
00
12
11
d7
00
00
12
db
00
00
06
2c
1b
ec
ce
ef
00
14
00
45
00
ea
00
db
00
1c
ed
ca
00
00
00
ec
e1
00
13
00
2b
e0
d9
c1
0e
f9
d2
00
c8
da
00
1f
00
2c
1c
18
2b
07
fb
00
11
1a
00
00
00
f6
00
17
00
1c
e6
00
0f
1f
22
f0
f3
00
00
00
00
07
fc
18
f4
00
f1
94
00
18
00
00
00
e7
f4
00
1f
3f
e1
00
1a
1d
00
00
00
21
00
ad
00
00
11
25
24
16
ef
18
00
00
10
00
00
00
00
ac
00
1a
f9
ed
0a
00
00
00
f5
18
00
1c
09
c4
ce
fd
f0
21
00
ed
24
cb
b6
00
00
e8
12
eb
c3
0c
00
00
00
1d
ef
e7
0f
00
00
c3
16
00
00
f0
f1
3e
00
00
ce
00
f8
00
09
e4
4d
bd
19
00
00
eb
00
00
ef
e8
30
00
0c
2a
0c
00
00
3c
1a
00
17
c2
00
d7
dd
17
1a
00
00
00
00
f0
2b
28
00
25
0d
00
12
f5
de
ea
ce
df
db
21
00
22
00
19
00
00
00
c2
00
de
de
c0
13
eb
00
00
00
10
00
23
00
37
0a
00
0d
00
00
00
00
27
20
d3
27
00
00
00
19
00
17
d8
e7
ce
33
ec
00
24
00
da
d9
f8
00
fd
e6
0e
00
39
46
e0
00
00
00
3b
00
00
0e
25
10
db
18
11
12
ef
f2
00
e2
c7
1e
00
13
00
d6
00
23
1c
00
de
00
00
13
00
00
11
00
00
0c
00
37
00
f2
00
f5
ee
25
1f
16
00
21
2b
ee
24
fc
00
00
00
da
18
00
00
00
e2
16
00
f4
1c
00
00
1e
18
de
fd
00
e0
0a
00
00
13
eb
a2
1b
dd
0f
18
00
df
f5
1a
1e
d8
d3
d1
20
15
00
0d
00
e3
1d
14
f6
e7
dc
00
00
17
18
00
e6
f3
21
c8
db
00
00
16
d9
14
15
00
00
00
e7
00
10
e3
d2
26
0d
14
17
00
df
00
f4
e0
00
17
0a
f7
00
00
f5
00
37
46
e5
00
c2
ec
32
32
3a
f2
e3
cb
30
db
1a
00
17
00
00
00
f1
18
00
13
00
26
eb
1f
1d
00
c9
1a
ef
0e
3f
00
0d
0d
00
e5
1b
00
f1
00
00
21
f7
00
00
c1
ad
18
f6
00
27
18
00
00
dc
ef
e3
c9
24
57
ed
00
00
00
eb
f0
ea
d9
d0
21
2e
20
26
00
00
d1
1b
00
00
d6
13
1d
00
12
00
0d
e6
f7
2c
e9
f4
0e
f3
00
00
2c
12
00
00
14
17
ec
d4
d8
cb
37
4b
00
00
45
0a
14
f9
ed
00
00
e1
1c
00
e1
00
12
c7
00
1e
37
00
e3
1e
1d
00
3d
bb
00
17
ea
1b
00
00
32
00
00
b1
00
00
00
00
00
00
29
00
00
00
00
16
de
16
28
00
00
00
20
ec
ee
00
e7
00
00
f3
2d
0f
c9
df
0a
00
25
1b
00
c5
d1
26
f3
19
f4
00
00
c9
ed
f3
2a
00
00
10
15
00
1c
0a
cc
c0
00
e9
00
01
00
00
ee
00
d6
f5
00
10
00
00
3b
00
10
d0
cc
f2
e0
31
0c
1d
d9
00
de
ca
10
14
00
1f
39
17
00
e6
3c
e6
00
22
0c
d6
b2
00
00
2d
e2
0a
e2
00
ee
1a
30
20
16
f0
00
af
18
e9
00
ec
cb
d0
19
2f
00
e2
16
f6
29
dd
26
00
00
00
dc
0c
40
2a
00
e8
00
dc
f8
b6
1a
ed
07
28
1c
d8
f0
41
00
00
0e
00
ee
00
49
13
c4
00
12
00
18
1b
23
16
f5
00
f9
9b
be
de
40
d7
00
e5
00
ec
ea
00
00
cf
25
f0
10
33
00
28
00
23
ca
02
28
00
e6
13
0d
23
1e
00
1f
2f
35
00
b5
18
21
1e
8e
03
00
ec
da
21
13
c0
f4
26
00
41
da
1e
dc
00
16
14
19
f1
00
ea
2e
00
00
00
22
1a
00
f1
f4
d6
00
00
d5
00
ea
da
ef
00
de
f3
dd
15
17
00
00
00
00
e6
00
19
00
0e
e9
00
24
00
00
00
00
e7
1e
00
f1
f1
ce
00
00
21
da
00
21
2b
07
cf
08
00
00
ee
31
c8
00
00
0f
1c
25
00
0b
0f
ee
00
c2
00
f8
00
00
cf
19
26
00
00
ef
19
e0
db
00
00
00
05
56
f1
1d
fd
28
19
f1
db
fe
dd
00
0b
f9
ee
38
00
2a
df
09
14
1b
00
0f
07
00
1f
00
e9
00
21
00
00
f3
f4
00
00
00
00
ec
f0
00
00
00
e8
00
00
00
00
0b
e9
ea
00
00
00
00
00
00
00
00
00
00
f1
00
00
00
ed
00
00
f2
0d
e7
0d
0d
00
e8
ed
f1
00
00
00
00
00
00
00
00
00
00
ea
00
00
00
f2
ed
00
00
00
00
00
f2
00
00
00
00
00
00
00
00
ef
00
00
00
00
eb
f2
00
f3
00
00
00
ee
f2
00
00
00
00
00
00
00
00
f2
f4
0c
f3
ea
0d
00
00
e9
00
f0
f4
e8
f3
00
f1
00
f2
00
00
00
e9
f1
00
f0
00
f2
0e
00
df
17
f2
e2
0b
e0
00
00
f6
2b
00
df
00
00
f1
05
2c
15
00
00
2e
e9
00
ef
e4
16
d6
00
00
32
cf
dc
11
00
00
00
f7
00
de
00
cb
00
00
ef
fb
00
00
f0
de
11
e8
00
00
db
00
fe
0a
17
fb
00
ee
00
00
e2
ec
00
00
1c
f2
d6
c5
e8
00
00
1b
d9
db
d5
00
d4
00
dd
e8
e1
00
00
ee
00
00
00
e8
00
00
3a
00
00
00
00
00
00
e8
00
00
e8
00
f4
00
00
00
1c
00
ec
de
0d
e6
00
e5
fd
12
00
e8
00
f8
ec
00
e8
0e
00
db
f1
40
00
e6
da
15
f4
00
00
f1
df
00
27
25
17
dd
00
00
00
2d
00
27
00
16
c3
21
25
1c
00
00
00
1c
29
00
2a
22
e1
00
11
26
00
00
00
20
ed
1b
00
00
00
26
ea
e8
18
1c
00
eb
0e
c1
f3
f1
c3
d9
00
21
dc
10
f2
21
11
17
f6
21
00
eb
f3
ca
00
2c
e9
1d
00
e6
1a
34
e5
3a
00
12
00
ca
1d
00
d6
ee
ed
f9
f4
da
e3
00
d0
00
f7
f0
00
00
00
17
00
16
00
b9
00
00
00
e9
00
00
00
d2
f5
00
31
f4
00
c7
d8
00
0f
e4
2c
e8
00
2e
f3
eb
2a
df
d6
f1
17
19
00
c5
13
ef
00
36
d2
00
00
00
18
1a
00
00
00
00
00
1f
16
21
00
23
1c
00
13
18
ef
e8
00
1a
16
20
eb
00
00
1c
00
18
00
00
24
0a
00
c7
00
d5
b8
00
00
00
15
00
00
00
f2
18
dc
00
14
00
00
c4
ed
23
df
00
00
eb
00
32
00
ef
04
00
e1
00
13
00
00
00
eb
ef
17
0a
00
1e
00
00
00
00
00
00
ea
e6
3c
00
00
f0
41
00
de
d8
00
00
eb
12
f0
00
00
08
e5
c4
00
d4
04
da
00
f3
ea
ba
00
23
f6
4e
22
00
f5
1f
00
e2
d2
b2
16
23
da
00
00
dc
e9
00
00
00
f1
12
00
ec
00
f5
1f
00
f6
00
1a
00
00
b9
00
33
00
00
00
29
e0
00
17
00
00
1d
01
00
02
e7
00
27
28
10
00
00
00
00
2e
00
00
00
28
00
00
ea
16
17
18
f8
00
00
22
c5
00
00
00
ed
00
00
00
00
00
00
00
00
22
00
00
16
00
00
26
13
d7
00
10
df
ea
26
da
00
24
50
00
1c
22
00
27
24
00
00
12
17
27
f4
d1
00
0c
cd
30
00
f2
28
00
fe
00
19
0b
00
f2
00
1f
3c
e7
dc
03
c5
24
00
1b
25
f4
00
c1
2f
1e
00
00
00
d6
23
00
05
00
00
00
00
33
00
00
d8
29
28
00
fc
00
00
00
10
00
1c
1a
22
00
1f
db
df
00
00
e8
0f
1d
da
f4
00
00
00
20
2c
e2
db
00
00
f7
dd
b9
00
c8
b9
00
d0
f0
1a
19
00
f0
1f
10
af
ea
d7
99
00
00
00
ed
15
00
eb
00
36
d6
00
21
00
f0
18
da
00
00
f3
a7
00
18
00
00
00
00
1c
16
ef
2e
00
27
d7
d6
2f
ed
13
00
29
20
ec
12
00
2d
00
11
00
3b
e5
00
bd
00
c9
00
06
d6
00
f8
0c
f0
14
12
cd
0f
00
15
0f
ee
21
00
ec
40
00
00
e6
00
00
00
13
00
00
e7
34
d1
00
00
2c
f5
00
cb
00
d6
00
f3
3f
13
d7
0d
0f
d9
00
2d
00
00
1f
ea
e3
ec
00
00
28
d2
11
00
9c
d4
0b
c7
00
00
e5
00
23
e6
e3
00
ca
ec
1d
08
27
0c
00
07
00
2d
ed
bb
11
1d
00
22
00
2b
28
25
00
d0
13
00
0a
00
00
00
10
00
00
00
00
00
20
d1
03
21
3d
00
00
00
b6
ed
00
ea
00
00
00
00
0d
f6
18
c3
b7
00
00
34
00
aa
c3
0d
00
ee
2b
1d
00
05
22
0c
00
18
f2
e6
1f
00
0c
00
19
00
f8
1e
0e
24
17
20
00
d6
00
ce
00
27
29
00
00
f3
f1
f0
d3
00
18
25
1d
f3
e1
de
fa
00
48
00
29
e6
13
28
00
d6
d8
13
d9
34
20
0c
12
00
00
00
14
e2
f6
0a
db
00
00
00
d6
00
00
25
e0
18
00
00
25
00
fa
e6
d3
00
d4
00
00
ea
00
e5
e0
09
e0
ea
00
00
00
1c
d8
00
53
00
37
00
00
e8
00
00
ed
3a
12
00
00
00
00
00
00
64
41
00
ea
eb
00
18
42
1d
00
f0
00
00
1c
00
08
18
0e
00
1f
f3
00
00
f4
00
ef
00
00
00
16
00
00
14
14
16
29
1e
f1
da
00
e3
00
00
e3
00
1b
00
e7
de
00
db
35
2f
00
da
ee
26
d0
00
00
ea
00
c9
e7
00
3c
00
21
27
29
15
00
e5
f3
00
00
00
00
00
00
0d
1f
24
ed
00
21
00
f4
00
2b
29
04
17
00
00
e5
41
24
1e
d2
00
df
b5
2d
1e
00
00
08
f0
1f
f7
e9
ed
e1
fb
15
e7
e9
ee
19
00
ed
e3
00
23
17
25
ed
d1
b0
00
17
f3
1b
e9
00
d1
e4
e6
ea
3f
00
00
1a
2f
00
00
3a
00
00
f4
00
00
22
00
2c
ce
e9
f3
00
cc
25
e6
21
2f
22
d7
00
17
ed
00
1d
ea
ca
19
00
e5
00
1d
24
ef
00
f1
b3
00
f1
ec
eb
ce
dd
dd
c1
c6
f4
19
f2
fa
ed
d5
1d
d7
07
f7
00
e2
1c
20
00
2c
f7
00
3a
15
f3
dc
f3
00
0f
21
1f
2a
18
1f
dc
ca
1f
1a
ce
fc
00
00
ea
00
00
ef
00
24
d5
12
00
15
0f
08
27
21
cb
00
00
00
21
e8
00
00
d1
ee
2d
00
c6
00
00
2d
ec
00
0e
f3
07
ed
23
f1
cd
da
00
13
00
00
e6
00
e8
00
ec
10
ed
e6
00
db
00
eb
00
37
15
00
00
c5
ea
35
20
00
f0
00
f3
ed
00
00
21
18
00
1d
00
00
00
e2
00
00
00
e2
3d
3b
2e
1c
00
34
cb
1d
00
1d
e2
e6
1b
3a
26
ed
d0
00
22
d9
1f
00
f3
fd
e3
00
df
00
f3
0c
00
e9
00
f2
e9
00
e8
cb
00
00
00
e5
00
1a
d6
c8
00
00
00
32
c4
eb
11
d3
00
10
12
00
fe
00
00
e3
f5
f9
00
ed
00
f2
00
00
e2
e1
00
24
d5
d3
fb
00
e9
00
e4
12
00
01
0e
00
e3
00
00
f4
00
00
e3
ed
ee
0d
df
00
0a
20
00
00
00
00
00
cc
01
00
d6
18
1a
00
0c
00
dc
e4
00
dd
f2
00
b2
cc
00
02
e5
00
00
00
20
00
00
00
ef
1c
e8
00
c1
e4
ec
f0
00
00
22
df
df
00
e9
ee
e7
00
fb
00
00
00
da
00
00
f5
00
00
00
00
00
cf
00
00
eb
e3
00
f2
00
00
e5
00
00
f0
dc
00
00
00
15
23
00
ef
13
3c
f1
00
00
39
ea
2c
00
13
e2
ea
36
29
00
00
ef
2a
00
40
2f
13
00
00
00
e0
e4
00
d1
00
13
ec
d3
00
00
00
cd
00
00
00
00
18
00
97
1a
02
c4
21
12
1e
d8
37
f6
15
00
0d
2e
00
00
00
1e
2a
00
1c
00
00
00
0f
f2
12
16
1e
39
18
18
48
30
1f
1a
dc
db
f6
00
f9
12
15
05
ef
0c
00
28
00
1e
f2
00
00
0f
0f
e3
20
00
00
00
1b
19
00
18
1a
1a
d7
00
e6
29
d7
29
35
00
e2
00
ef
00
09
49
00
1a
00
12
de
31
e4
c8
00
00
00
eb
00
00
00
00
00
00
2d
19
00
00
00
f4
2a
29
c0
ef
17
00
0f
15
26
16
00
df
b5
00
fe
e9
00
00
f3
31
07
00
00
d1
00
00
00
17
22
00
00
12
c2
d9
0d
1c
f2
00
00
ec
13
f9
eb
14
00
e4
1c
00
ed
00
00
00
e1
f7
e7
df
c7
f2
08
00
00
00
14
4b
df
28
00
1b
c5
ef
22
00
cf
2f
cd
b6
00
ea
ed
00
22
00
00
3e
3f
00
f1
e9
11
b4
00
0b
00
ee
00
e1
cc
00
e9
00
00
00
20
25
e4
e7
17
44
00
f2
00
00
00
1e
eb
00
12
22
00
10
ea
48
35
2b
eb
ee
00
18
43
00
db
00
1d
16
ec
00
e9
e3
f0
ec
ea
f3
00
23
f8
00
00
12
15
00
00
d8
00
e3
00
f8
00
00
00
00
00
00
00
ea
00
0f
04
4a
00
c1
00
0a
00
0e
00
16
e9
00
13
13
00
e9
1f
00
00
34
00
00
22
ca
f8
00
ee
0d
24
20
f6
2a
00
ea
f8
00
00
33
23
23
09
11
19
0c
e0
df
00
00
00
e3
00
11
3a
14
33
e3
0a
0c
00
db
26
00
ee
2e
00
e5
3a
bc
38
20
00
3c
01
e6
00
00
00
46
e8
eb
00
23
e9
1a
00
f2
e8
e9
00
e6
1f
10
f0
2b
0d
e0
00
15
31
00
00
e4
00
0f
cb
26
1f
00
00
00
e0
34
2f
12
1c
26
0a
11
e5
e1
bb
00
00
e3
26
00
00
1d
33
18
00
00
00
28
e4
00
e3
00
30
25
0e
00
00
2d
1d
00
1b
25
00
e5
00
0b
d4
30
00
17
2b
00
fb
00
e9
eb
27
1a
00
d8
00
df
00
00
00
0c
00
00
dc
e2
00
e1
00
3d
e2
05
14
38
18
00
2d
d5
00
04
0f
00
f8
00
f1
41
00
ea
1b
e3
0b
23
00
f5
00
00
ff
00
00
00
c9
e5
00
06
00
14
0a
e6
cb
f2
3e
f7
00
dd
cc
f1
00
e4
ee
17
00
1c
00
20
00
1e
00
d0
00
c7
38
00
21
e8
22
d8
1f
29
00
db
20
1b
dd
00
f2
00
24
22
00
e9
ec
ec
ec
00
22
00
e8
dd
00
e5
00
00
d1
1c
00
e6
12
28
0d
1d
25
d4
e0
f1
18
12
00
00
1e
00
00
ce
10
4c
00
f5
00
00
ec
00
e0
d9
28
00
00
00
ed
47
19
00
00
f1
00
00
00
35
00
00
ed
bd
00
3f
21
1a
00
ee
00
00
23
00
00
00
30
1a
d0
17
00
00
1b
f1
00
2c
00
25
1b
00
00
1c
d5
11
c0
22
25
00
17
00
d6
27
00
00
22
e0
00
00
00
ea
12
15
00
18
c5
21
00
00
f3
00
00
df
15
00
09
e1
00
00
cc
16
00
18
21
cf
45
e8
0b
21
00
00
00
13
00
00
eb
24
1a
c7
da
1a
00
00
00
d1
00
19
d8
1b
12
e4
f5
31
0d
1c
1f
d3
12
e3
1a
f2
19
00
00
0b
00
00
1d
00
11
e4
d1
d3
ae
00
fb
3b
00
14
0b
00
00
0f
00
00
db
f0
00
00
25
d2
ed
11
00
f8
00
34
e7
df
00
15
00
29
f1
31
00
00
50
25
1e
00
ee
00
18
00
dd
00
e9
f3
da
00
f2
e1
f2
00
ef
1b
00
0d
2f
00
1c
e9
27
21
00
00
3a
00
f3
26
ed
00
00
00
00
f0
00
4d
00
00
00
00
0d
00
00
00
e9
d8
00
00
00
ea
2c
00
e0
00
28
00
00
28
00
00
e3
00
15
e5
f4
06
00
1f
ea
15
00
00
ed
de
00
1b
00
ee
0e
00
23
17
de
ea
00
3e
2c
00
00
d2
00
ef
dd
00
23
00
0d
37
0f
11
23
d8
00
00
00
f6
17
0a
00
00
00
27
34
00
f0
bb
dd
16
47
39
1c
00
00
18
25
ec
10
00
00
00
dd
09
1a
c2
ec
00
00
d7
00
27
00
00
00
ee
0c
00
12
f0
ec
00
d7
f1
31
00
ea
00
15
eb
f9
2f
12
38
32
2f
11
00
00
00
00
13
34
21
00
d0
ed
00
ec
08
00
00
19
11
27
3b
00
29
00
ba
e9
00
12
e7
d9
22
e8
00
00
08
00
27
00
f4
27
32
0e
00
00
e5
12
ef
bd
10
00
11
bb
00
14
20
00
14
00
25
38
00
e9
0a
ec
14
00
00
26
00
00
00
18
00
00
00
00
f8
13
00
14
00
00
00
bf
c0
00
18
00
1c
bb
c1
27
e7
b3
00
f5
e0
e2
09
0f
00
18
de
00
00
00
de
10
20
00
00
15
00
b8
00
15
24
c4
00
00
ed
2e
1b
19
f4
00
18
f7
c8
00
00
28
dd
00
ea
d2
00
00
2a
16
10
eb
0e
00
ea
00
c2
0e
bb
23
00
00
24
00
ea
ee
00
00
aa
00
18
16
00
00
e0
00
31
00
c2
00
00
00
00
00
00
18
c7
16
e6
00
d3
d0
17
d8
00
f1
c1
00
00
ea
2a
26
00
00
e9
00
c2
00
f3
00
2e
00
25
1a
00
3d
21
e1
19
00
00
ee
e3
00
20
13
0f
ed
d8
5a
0a
19
db
e0
19
18
f2
ef
00
00
00
00
12
00
00
00
d7
00
ea
1b
16
00
00
00
d8
2a
00
eb
16
20
f8
f4
1d
f4
25
2b
00
00
1a
ef
00
1e
d6
10
00
45
00
00
e2
00
16
00
00
24
00
27
00
00
00
00
ba
d7
09
00
00
21
00
24
00
0d
00
00
4d
0c
28
2f
00
00
0d
00
c0
00
00
b5
00
1a
23
d9
00
00
20
1a
00
42
00
00
f8
ed
c0
00
00
19
da
1c
db
1e
17
00
d7
00
17
c3
16
1d
26
00
00
a8
28
da
e1
15
10
5c
00
df
ee
d5
1e
00
e8
e0
00
0c
e3
00
00
e4
ee
e1
1c
39
1c
0d
00
17
e4
12
ea
2e
00
24
1a
00
00
e1
10
2f
26
eb
f8
00
00
1b
1e
16
e8
ee
1d
16
f7
00
2d
d3
b7
15
e0
d1
00
1f
00
21
e9
42
d4
00
f9
00
fa
ed
24
49
00
00
ca
c0
00
ef
1e
00
4d
20
21
3f
2b
00
0d
17
d8
e5
f9
e9
cc
00
00
db
07
33
00
00
00
28
00
f5
00
00
00
25
c5
00
00
00
00
00
ef
c4
25
f3
dc
20
15
ce
12
e0
2a
3b
e7
22
28
00
18
cd
00
26
1c
1e
00
1a
26
00
0d
00
00
ef
00
28
0c
00
d8
00
f0
ef
de
f9
0d
c3
1a
f4
29
ea
00
29
f3
32
f6
18
00
27
00
00
00
07
21
e8
00
00
00
ee
21
00
eb
00
f3
17
d1
ed
ce
28
0d
2b
50
00
00
00
26
0f
00
0b
18
d4
15
1d
00
1f
f7
00
be
20
f6
00
37
da
1c
00
0f
cb
d7
d9
12
35
58
00
34
22
00
ef
d5
19
00
ec
00
1a
00
20
d9
b8
13
3a
00
e9
dc
15
0b
1b
00
00
2d
13
c0
1e
23
00
ee
00
eb
ba
89
25
10
d9
00
b5
db
23
00
00
12
d9
00
0d
f6
27
20
00
10
29
07
00
21
00
bc
15
cc
1b
f1
00
00
09
ea
00
00
0c
ed
00
2c
cf
00
00
00
2d
c5
0b
da
d6
14
00
1b
00
00
eb
00
20
dd
0b
14
00
0c
d9
e0
00
e9
27
0b
00
00
00
1c
ea
00
0d
da
0e
16
00
00
1e
4f
00
47
f4
00
00
0f
1c
00
2c
0e
28
31
20
b3
00
fa
21
19
00
00
29
2a
e5
00
e4
00
1b
ce
00
da
18
e4
00
15
00
00
00
cc
f5
16
00
00
1f
dd
21
00
e9
ee
1b
0f
23
de
e8
00
00
eb
00
00
ee
00
da
09
00
00
00
e7
00
00
00
ea
0d
0e
16
e4
f4
00
af
2c
00
01
06
00
c3
00
ea
0e
e0
00
0d
ee
db
d7
f5
df
00
00
08
fa
f2
0d
0e
24
00
00
00
e6
f6
eb
00
c1
de
00
00
00
00
00
f5
d0
ef
e3
eb
1e
fb
00
c3
00
d2
22
e8
00
fe
00
1f
00
00
00
1a
00
ca
10
00
e2
1a
e3
d7
16
e9
00
18
d3
00
00
d7
05
39
1c
e9
00
ec
00
10
00
00
00
00
23
00
b8
12
1b
00
00
f5
d3
cd
c3
1f
26
d5
00
d0
de
34
00
00
00
f2
17
13
eb
11
12
1b
f0
00
df
34
00
00
da
00
d5
11
e8
00
0c
16
00
00
23
00
00
00
1e
d9
23
00
00
38
ac
00
00
00
f1
00
0a
18
00
dc
00
15
00
08
15
d7
e9
00
b5
00
dc
17
00
21
00
e9
1b
cb
00
00
eb
00
00
00
25
27
29
0c
40
02
00
ea
00
28
00
00
0c
07
30
23
d0
dd
2c
1d
00
00
00
00
00
db
00
ed
18
ed
de
00
29
00
38
00
00
15
ef
f3
d4
1d
00
00
ef
1d
d1
00
e4
39
2f
e8
00
db
e0
2a
11
24
e1
eb
f6
00
1b
30
00
1a
00
0b
0e
10
2a
00
c4
10
29
d7
00
00
12
d9
00
00
00
19
00
00
ea
00
ee
00
33
00
04
00
00
df
18
19
d9
00
00
12
00
00
00
d6
26
f7
2c
00
15
40
07
d9
10
cc
ec
00
cf
00
0a
d0
f8
13
23
29
00
00
00
00
9e
eb
eb
1f
00
f5
00
eb
2e
24
db
26
39
0e
e7
ba
00
ba
39
00
00
40
21
00
00
fd
ee
dd
3a
db
1c
00
e0
19
00
16
21
f4
20
1b
b5
14
18
00
ea
00
c0
e2
bc
00
1c
bc
0f
c1
de
00
0f
e5
12
00
00
00
00
25
0f
00
00
ed
11
0b
00
00
cb
0f
f0
f2
13
00
00
0c
1e
00
1f
1b
00
00
04
fb
00
0f
11
14
c9
0f
17
00
12
00
0d
0e
00
e8
00
00
d3
00
0d
a6
00
db
ab
00
00
2c
00
00
08
00
26
c5
00
00
b8
e7
00
00
d0
14
42
1d
2f
00
00
00
00
ed
00
00
0b
18
13
f2
d6
13
0e
24
e8
e2
07
00
1e
16
0b
00
d2
17
d2
2d
e0
27
00
00
1e
00
0e
00
00
00
52
23
f2
00
24
ec
00
00
e5
00
00
24
d3
00
ec
f5
29
f2
ee
00
f3
17
00
00
f0
00
00
d3
29
23
00
f3
e6
e6
34
1b
0f
f0
01
00
0c
00
df
cc
00
00
ea
00
e6
00
07
19
0b
00
ff
12
21
f4
00
de
e1
34
2d
00
14
ef
02
13
00
00
25
3f
d2
12
13
e6
1f
15
0e
00
00
00
f1
e1
eb
19
06
00
00
00
ee
00
16
00
00
00
00
00
f2
00
0d
00
61
00
09
0b
1f
2e
f5
28
00
00
e2
1e
00
e3
ed
f0
00
00
00
00
da
ef
00
f2
fa
2e
10
d7
00
00
25
00
e6
3a
2c
dc
29
f0
0c
20
41
de
00
dd
00
18
d1
da
00
00
fa
00
20
00
d6
d5
00
f4
00
df
18
1e
00
00
dc
14
00
ea
00
ee
00
11
2e
20
e4
00
c3
8a
41
00
00
1c
da
1c
33
2b
00
d2
c3
16
ef
ed
cd
f3
00
ea
30
e1
00
24
17
23
ee
db
1b
ed
11
17
00
3b
00
dc
16
00
f8
f9
be
1f
00
21
00
0e
00
d4
f7
00
0f
00
00
18
00
e6
99
09
00
e0
f8
00
00
cf
25
fc
22
00
e6
00
c6
00
00
00
1c
00
35
e2
00
2b
1b
fd
00
e0
24
e3
d5
10
00
22
28
b9
b1
21
00
11
00
ea
ee
15
d9
00
00
00
00
00
1b
20
00
00
00
00
00
00
ec
25
1c
1e
ee
df
ef
f7
13
00
00
13
16
0b
00
1b
e8
00
00
2e
1b
00
ca
ec
00
2d
20
10
16
00
0f
06
f6
2e
1f
00
c4
00
f8
00
00
ee
00
16
e7
15
00
00
00
23
1c
f2
23
0b
00
17
00
2a
0e
00
c5
ed
00
ea
e0
10
00
ed
e3
00
52
00
18
5a
f3
f1
07
ea
dd
00
c8
43
00
16
f2
c5
00
1a
00
ef
00
00
00
00
00
35
00
ee
bc
00
00
00
df
f5
ea
1b
27
00
00
be
e6
2c
00
2d
17
30
18
f1
f0
ff
e1
00
bf
00
04
dc
ec
4a
00
f1
00
11
00
e1
11
ff
c0
1e
d4
00
01
00
00
04
00
f5
2b
1c
17
ef
14
eb
00
13
00
00
3e
fb
00
00
2e
18
00
ed
00
de
00
d5
00
1e
da
19
00
1a
d3
cc
fe
00
13
0e
db
1d
e9
1e
00
00
00
00
18
00
de
00
cd
1c
00
cf
00
00
1c
00
0d
00
00
13
00
00
16
db
48
d6
f3
00
d1
00
e9
00
00
00
00
19
28
c7
f2
eb
19
1b
ed
00
2b
ee
32
00
c6
20
30
17
18
00
17
c5
00
00
e9
dd
00
ff
1b
24
00
00
f0
11
cf
d1
1b
00
23
00
00
d5
d1
27
0d
df
17
13
00
25
f5
f3
f6
00
3a
00
00
11
00
e9
15
00
21
1f
dd
e8
00
00
12
25
15
38
00
15
27
00
00
24
e9
db
21
00
00
17
11
00
00
00
f1
00
00
e6
e7
07
00
00
f3
fa
d0
e9
21
df
22
00
2f
0c
ee
cd
d3
23
22
00
00
25
00
10
d4
d9
1e
00
00
20
25
00
1e
00
17
10
e8
e5
42
ed
d8
00
1d
d2
29
0b
fb
00
ed
32
00
f0
19
cb
0f
ed
d5
00
c6
e0
13
29
ef
00
00
cc
00
21
00
00
00
00
08
32
27
00
00
00
15
00
17
e9
f4
2c
f5
0d
a4
00
00
00
1a
f3
00
00
f6
e2
15
e2
10
00
00
12
21
de
00
2e
00
e2
00
0f
e2
0e
00
db
2b
14
16
16
00
e9
ea
ab
0d
ef
2c
00
00
27
00
00
16
e7
00
2a
f2
00
d7
ec
c8
11
40
00
e1
00
17
13
ee
00
e5
21
00
00
28
1b
00
bc
00
0c
00
00
9e
a0
14
0f
00
00
00
f0
00
00
00
23
c7
15
36
e7
eb
d7
0f
f3
f9
00
f4
15
3a
15
00
f3
1a
da
ee
29
00
00
e5
f2
00
f1
ef
00
00
cf
00
e3
e1
1c
00
00
00
00
fe
16
00
03
00
00
b4
00
1a
1e
ee
1f
0b
e7
1d
0d
21
00
3a
00
00
19
cf
00
32
e4
48
00
00
2f
ef
17
25
24
ec
e6
14
2f
00
07
d0
ed
c4
e5
00
fb
00
00
13
1a
f2
ce
1b
e8
26
f1
0b
00
00
1e
00
00
f2
00
e0
e9
f2
18
00
13
f0
d9
dd
21
11
21
00
f2
00
1a
ff
00
20
00
f0
48
00
00
00
e3
00
00
00
eb
00
dc
00
ce
00
29
e0
00
00
eb
ef
f6
de
dc
00
00
f0
00
37
00
18
f0
00
16
e3
35
00
00
db
00
ec
00
f5
16
00
22
00
00
34
00
3f
23
09
0b
00
00
fa
e7
ec
0c
00
06
00
21
1b
f4
00
e2
e1
00
0a
00
c5
ec
fc
00
13
00
00
00
00
00
00
00
df
00
d5
00
4d
00
2f
0e
28
26
f1
00
ca
0d
0b
14
00
00
1c
0c
12
1d
00
eb
00
e9
46
fc
00
00
00
ce
11
00
e7
0f
00
f0
f8
00
d1
00
00
00
09
d2
00
00
27
00
26
00
16
eb
00
00
1c
df
00
00
bd
ee
17
2e
00
d9
00
c1
dc
2d
00
2e
d3
00
14
00
3e
00
11
f4
00
d6
00
ef
00
00
00
25
00
00
14
12
0e
00
ea
c4
2a
12
e9
1f
e8
19
18
10
39
b0
e0
14
14
00
d1
00
00
15
11
aa
da
1e
c5
2d
f2
cc
1e
d7
00
25
00
15
cc
16
19
d7
e9
12
24
1d
c1
24
00
00
1d
00
00
e0
ee
16
e1
00
fc
f0
d6
1f
fb
ec
e0
1e
03
0a
00
00
12
21
00
00
17
00
00
00
1c
00
00
00
0f
00
00
11
00
ec
42
1d
46
eb
00
4e
21
1e
3a
d8
0e
14
dc
2a
00
00
00
15
20
ef
eb
e6
10
00
00
f0
2e
00
2a
27
00
00
eb
00
1f
00
12
2a
26
e9
df
13
00
00
2a
da
26
00
0a
16
e6
00
00
00
00
ea
bc
11
00
00
e4
1c
e4
00
00
ee
5b
f7
f0
00
00
00
10
2b
e9
00
20
f6
19
1b
00
00
00
00
00
2b
15
14
0e
00
2b
08
00
1a
da
00
fd
0f
00
11
d2
00
f5
de
f6
23
00
00
00
24
2c
10
1a
00
38
00
ed
00
c7
f0
ec
00
cf
14
0e
00
d5
e4
00
13
99
00
00
32
e5
1d
00
44
db
15
1c
e7
12
17
f2
e3
00
e5
c9
00
00
ee
f3
00
17
e6
00
21
f7
24
00
00
bc
fc
12
e4
e4
21
1d
1d
39
11
00
00
00
13
00
12
00
0c
d6
33
00
00
eb
e8
16
1b
2e
00
1a
1a
1c
2f
cb
e4
ce
2c
00
00
1b
1e
00
0e
24
56
00
09
00
d9
00
fa
00
18
94
25
00
00
20
00
00
15
11
00
e7
e1
00
e1
00
00
00
2f
00
b0
00
00
00
14
07
fa
